#ifndef MODELO_NOVA_H
#define MODELO_NOVA_H

const unsigned int modelo_nova_dim1 = 18632;

const unsigned char modelo_nova[18632] = {
    0x20, 0x00, 0x00, 0x00, 0x54, 0x46, 0x4c, 0x33, 0x00, 0x00, 0x00, 0x00, 
    0x14, 0x00, 0x20, 0x00, 0x1c, 0x00, 0x18, 0x00, 0x14, 0x00, 0x10, 0x00, 
    0x0c, 0x00, 0x00, 0x00, 0x08, 0x00, 0x04, 0x00, 0x14, 0x00, 0x00, 0x00, 
    0x1c, 0x00, 0x00, 0x00, 0x90, 0x00, 0x00, 0x00, 0xe8, 0x00, 0x00, 0x00, 
    0x64, 0x29, 0x00, 0x00, 0x74, 0x29, 0x00, 0x00, 0xf8, 0x47, 0x00, 0x00, 
    0x03, 0x00, 0x00, 0x00, 0x01, 0x00, 0x00, 0x00, 0x04, 0x00, 0x00, 0x00, 
    0x1e, 0xd6, 0xff, 0xff, 0x0c, 0x00, 0x00, 0x00, 0x1c, 0x00, 0x00, 0x00, 
    0x44, 0x00, 0x00, 0x00, 0x0f, 0x00, 0x00, 0x00, 0x73, 0x65, 0x72, 0x76, 
    0x69, 0x6e, 0x67, 0x5f, 0x64, 0x65, 0x66, 0x61, 0x75, 0x6c, 0x74, 0x00, 
    0x01, 0x00, 0x00, 0x00, 0x04, 0x00, 0x00, 0x00, 0x8c, 0xff, 0xff, 0xff, 
    0x21, 0x00, 0x00, 0x00, 0x04, 0x00, 0x00, 0x00, 0x13, 0x00, 0x00, 0x00, 
    0x63, 0x6f, 0x6e, 0x76, 0x32, 0x64, 0x5f, 0x74, 0x72, 0x61, 0x6e, 0x73, 
    0x70, 0x6f, 0x73, 0x65, 0x5f, 0x37, 0x37, 0x00, 0x01, 0x00, 0x00, 0x00, 
    0x04, 0x00, 0x00, 0x00, 0x1a, 0xd4, 0xff, 0xff, 0x04, 0x00, 0x00, 0x00, 
    0x08, 0x00, 0x00, 0x00, 0x69, 0x6e, 0x70, 0x75, 0x74, 0x5f, 0x33, 0x34, 
    0x00, 0x00, 0x00, 0x00, 0x02, 0x00, 0x00, 0x00, 0x34, 0x00, 0x00, 0x00, 
    0x04, 0x00, 0x00, 0x00, 0xdc, 0xff, 0xff, 0xff, 0x24, 0x00, 0x00, 0x00, 
    0x04, 0x00, 0x00, 0x00, 0x13, 0x00, 0x00, 0x00, 0x43, 0x4f, 0x4e, 0x56, 
    0x45, 0x52, 0x53, 0x49, 0x4f, 0x4e, 0x5f, 0x4d, 0x45, 0x54, 0x41, 0x44, 
    0x41, 0x54, 0x41, 0x00, 0x08, 0x00, 0x0c, 0x00, 0x08, 0x00, 0x04, 0x00, 
    0x08, 0x00, 0x00, 0x00, 0x23, 0x00, 0x00, 0x00, 0x04, 0x00, 0x00, 0x00, 
    0x13, 0x00, 0x00, 0x00, 0x6d, 0x69, 0x6e, 0x5f, 0x72, 0x75, 0x6e, 0x74, 
    0x69, 0x6d, 0x65, 0x5f, 0x76, 0x65, 0x72, 0x73, 0x69, 0x6f, 0x6e, 0x00, 
    0x25, 0x00, 0x00, 0x00, 0x78, 0x28, 0x00, 0x00, 0x70, 0x28, 0x00, 0x00, 
    0x5c, 0x28, 0x00, 0x00, 0x48, 0x28, 0x00, 0x00, 0x34, 0x28, 0x00, 0x00, 
    0x20, 0x28, 0x00, 0x00, 0x0c, 0x28, 0x00, 0x00, 0xf8, 0x27, 0x00, 0x00, 
    0xf0, 0x27, 0x00, 0x00, 0xdc, 0x27, 0x00, 0x00, 0xec, 0x26, 0x00, 0x00, 
    0x5c, 0x26, 0x00, 0x00, 0x4c, 0x18, 0x00, 0x00, 0xfc, 0x17, 0x00, 0x00, 
    0xec, 0x10, 0x00, 0x00, 0x9c, 0x10, 0x00, 0x00, 0x8c, 0x02, 0x00, 0x00, 
    0xfc, 0x01, 0x00, 0x00, 0x0c, 0x01, 0x00, 0x00, 0x04, 0x01, 0x00, 0x00, 
    0xfc, 0x00, 0x00, 0x00, 0xf4, 0x00, 0x00, 0x00, 0xec, 0x00, 0x00, 0x00, 
    0xe4, 0x00, 0x00, 0x00, 0xdc, 0x00, 0x00, 0x00, 0xd4, 0x00, 0x00, 0x00, 
    0xcc, 0x00, 0x00, 0x00, 0xc4, 0x00, 0x00, 0x00, 0xbc, 0x00, 0x00, 0x00, 
    0xb4, 0x00, 0x00, 0x00, 0xac, 0x00, 0x00, 0x00, 0xa4, 0x00, 0x00, 0x00, 
    0x9c, 0x00, 0x00, 0x00, 0x94, 0x00, 0x00, 0x00, 0x8c, 0x00, 0x00, 0x00, 
    0x6c, 0x00, 0x00, 0x00, 0x04, 0x00, 0x00, 0x00, 0x26, 0xd5, 0xff, 0xff, 
    0x04, 0x00, 0x00, 0x00, 0x58, 0x00, 0x00, 0x00, 0x0c, 0x00, 0x00, 0x00, 
    0x08, 0x00, 0x0e, 0x00, 0x08, 0x00, 0x04, 0x00, 0x08, 0x00, 0x00, 0x00, 
    0x10, 0x00, 0x00, 0x00, 0x28, 0x00, 0x00, 0x00, 0x00, 0x00, 0x06, 0x00, 
    0x08, 0x00, 0x04, 0x00, 0x06, 0x00, 0x00, 0x00, 0x04, 0x00, 0x00, 0x00, 
    0x01, 0x00, 0x00, 0x00, 0xeb, 0x03, 0x00, 0x00, 0x00, 0x00, 0x0a, 0x00, 
    0x10, 0x00, 0x0c, 0x00, 0x08, 0x00, 0x04, 0x00, 0x0a, 0x00, 0x00, 0x00, 
    0x01, 0x00, 0x00, 0x00, 0x02, 0x00, 0x00, 0x00, 0x04, 0x00, 0x00, 0x00, 
    0x06, 0x00, 0x00, 0x00, 0x32, 0x2e, 0x31, 0x33, 0x2e, 0x30, 0x00, 0x00, 
    0x8a, 0xd5, 0xff, 0xff, 0x04, 0x00, 0x00, 0x00, 0x10, 0x00, 0x00, 0x00, 
    0x32, 0x2e, 0x31, 0x33, 0x2e, 0x30, 0x00, 0x00, 0x00, 0x00, 0x00, 0x00, 
    0x00, 0x00, 0x00, 0x00, 0x38, 0xba, 0xff, 0xff, 0x3c, 0xba, 0xff, 0xff, 
    0x40, 0xba, 0xff, 0xff, 0x44, 0xba, 0xff, 0xff, 0x48, 0xba, 0xff, 0xff, 
    0x4c, 0xba, 0xff, 0xff, 0x50, 0xba, 0xff, 0xff, 0x54, 0xba, 0xff, 0xff, 
    0x58, 0xba, 0xff, 0xff, 0x5c, 0xba, 0xff, 0xff, 0x60, 0xba, 0xff, 0xff, 
    0x64, 0xba, 0xff, 0xff, 0x68, 0xba, 0xff, 0xff, 0x6c, 0xba, 0xff, 0xff, 
    0x70, 0xba, 0xff, 0xff, 0x74, 0xba, 0xff, 0xff, 0xe6, 0xd5, 0xff, 0xff, 
    0x04, 0x00, 0x00, 0x00, 0xe0, 0x00, 0x00, 0x00, 0x6d, 0x27, 0xd1, 0x7f, 
    0x5d, 0xbe, 0x34, 0x4b, 0xc2, 0x65, 0x71, 0x4b, 0x81, 0x75, 0x5e, 0x34, 
    0x08, 0x81, 0x4a, 0x49, 0xa7, 0x2f, 0x0d, 0x64, 0x81, 0x11, 0x39, 0x25, 
    0x23, 0xbd, 0x21, 0x7f, 0x46, 0x61, 0x29, 0x22, 0x92, 0xff, 0x7f, 0x68, 
    0x19, 0xe4, 0x6c, 0x66, 0x6c, 0x7f, 0x44, 0x60, 0x85, 0x39, 0x18, 0x92, 
    0x81, 0x43, 0x8d, 0x6c, 0x7d, 0x5d, 0xe8, 0x81, 0xce, 0x9b, 0x82, 0x01, 
    0x69, 0xa6, 0x81, 0x45, 0x5d, 0x1b, 0xc3, 0xf8, 0xb3, 0x7f, 0xf8, 0xaa, 
    0x2d, 0x28, 0xac, 0x6a, 0x81, 0x6b, 0x19, 0x0d, 0xc8, 0xad, 0x17, 0x7f, 
    0x9f, 0xa0, 0xb1, 0x2f, 0xa2, 0xda, 0x7f, 0xc6, 0xdc, 0x7d, 0xe6, 0x2f, 
    0xbd, 0x7f, 0xb1, 0x16, 0x0b, 0x08, 0x02, 0xa4, 0x81, 0xed, 0x34, 0x0c, 
    0x0e, 0xc6, 0xc6, 0x81, 0x61, 0x26, 0xed, 0xd6, 0x4d, 0xbc, 0x81, 0xb1, 
    0x4a, 0x02, 0x1f, 0x81, 0x64, 0x86, 0xa4, 0x9a, 0x05, 0xcf, 0xff, 0x43, 
    0x7f, 0x02, 0x3c, 0x26, 0x14, 0xaa, 0x18, 0x81, 0x53, 0x61, 0xb3, 0xa7, 
    0x57, 0x38, 0x7f, 0xdc, 0xcf, 0xf0, 0xfa, 0xd0, 0xa3, 0x81, 0xe0, 0x1d, 
    0x9e, 0x41, 0xeb, 0x21, 0x81, 0x4c, 0x43, 0x3c, 0x3b, 0xa8, 0xb1, 0x81, 
    0xb4, 0x9a, 0x29, 0xff, 0x5a, 0x2e, 0x81, 0xf5, 0xe9, 0x11, 0xc2, 0xd6, 
    0x47, 0x81, 0xc4, 0xaf, 0x4c, 0x23, 0xd2, 0xbc, 0x81, 0x1a, 0xfb, 0x54, 
    0x2c, 0xf0, 0xb0, 0x7f, 0xdc, 0xdb, 0x20, 0xd7, 0xeb, 0x19, 0x66, 0xe6, 
    0x67, 0x7f, 0x51, 0xbe, 0xfc, 0x81, 0xd4, 0xfe, 0x4b, 0x2c, 0x5b, 0xd9, 
    0x7f, 0x0f, 0x64, 0x73, 0xd2, 0xd6, 0xff, 0xff, 0x04, 0x00, 0x00, 0x00, 
    0x80, 0x00, 0x00, 0x00, 0xc1, 0xfc, 0xff, 0xff, 0x08, 0xf8, 0xff, 0xff, 
    0xf0, 0xf8, 0xff, 0xff, 0x2e, 0xfc, 0xff, 0xff, 0x5f, 0xfa, 0xff, 0xff, 
    0x5e, 0xfa, 0xff, 0xff, 0x66, 0xf6, 0xff, 0xff, 0xcc, 0x01, 0x00, 0x00, 
    0x75, 0xff, 0xff, 0xff, 0xc8, 0x01, 0x00, 0x00, 0xda, 0xfa, 0xff, 0xff, 
    0xfd, 0xfa, 0xff, 0xff, 0xff, 0xf8, 0xff, 0xff, 0x03, 0xfd, 0xff, 0xff, 
    0x15, 0xfe, 0xff, 0xff, 0x81, 0xf8, 0xff, 0xff, 0x6a, 0xff, 0xff, 0xff, 
    0x7d, 0xfe, 0xff, 0xff, 0x7e, 0xfa, 0xff, 0xff, 0x83, 0xfe, 0xff, 0xff, 
    0xc9, 0xfd, 0xff, 0xff, 0x43, 0xf6, 0xff, 0xff, 0x49, 0x00, 0x00, 0x00, 
    0xfd, 0xfb, 0xff, 0xff, 0x22, 0x01, 0x00, 0x00, 0x84, 0xfb, 0xff, 0xff, 
    0x2c, 0xfd, 0xff, 0xff, 0x47, 0xfc, 0xff, 0xff, 0xcd, 0xf9, 0xff, 0xff, 
    0xdf, 0xfd, 0xff, 0xff, 0x5b, 0xfb, 0xff, 0xff, 0x68, 0xf8, 0xff, 0xff, 
    0x5e, 0xd7, 0xff, 0xff, 0x04, 0x00, 0x00, 0x00, 0x00, 0x0e, 0x00, 0x00, 
    0xc9, 0xec, 0x3e, 0xed, 0xf1, 0x04, 0xc4, 0xdc, 0xfc, 0x08, 0x2e, 0xf1, 
    0x3b, 0xe3, 0xd3, 0x01, 0xee, 0xbd, 0x05, 0xe2, 0x26, 0x3b, 0xd4, 0x2f, 
    0xe1, 0xc0, 0xf5, 0xe8, 0x03, 0x0e, 0x25, 0x32, 0x19, 0xdb, 0x3c, 0x03, 
    0x24, 0x18, 0xbd, 0x28, 0x45, 0x35, 0xc6, 0x1e, 0xdf, 0x06, 0xe9, 0xf2, 
    0x3d, 0xc1, 0x21, 0x44, 0x3b, 0xc6, 0x37, 0xfa, 0xc4, 0xfc, 0x34, 0xcc, 
    0x10, 0x04, 0xcd, 0xd4, 0xee, 0xfb, 0x37, 0xfe, 0x27, 0xc2, 0xcf, 0x2e, 
    0xd0, 0x3b, 0xcb, 0x08, 0xfd, 0xf9, 0x43, 0x1d, 0xea, 0x0c, 0x41, 0xd6, 
    0xdc, 0xe8, 0x10, 0xbd, 0x1a, 0xcf, 0x1f, 0xcb, 0x3c, 0xf3, 0xe6, 0xbb, 
    0x39, 0x11, 0x43, 0x5c, 0xf5, 0x02, 0xe8, 0x23, 0x53, 0x55, 0x24, 0x7f, 
    0x44, 0xe7, 0xf2, 0x43, 0x17, 0x2f, 0x78, 0x32, 0x51, 0xf3, 0x2f, 0x6c, 
    0x08, 0x42, 0x28, 0x52, 0x50, 0x36, 0x69, 0x24, 0xef, 0xfe, 0x01, 0x42, 
    0xea, 0x09, 0x3a, 0xd5, 0xd0, 0xd3, 0x16, 0xe3, 0x29, 0x00, 0x17, 0x25, 
    0x3b, 0xec, 0xfd, 0x03, 0xbe, 0xe3, 0xce, 0xda, 0x1e, 0xfa, 0x27, 0xd3, 
    0x36, 0xd9, 0xcc, 0xfd, 0xce, 0xed, 0xf5, 0x25, 0xec, 0x13, 0xe7, 0x1b, 
    0x0e, 0x1b, 0xc9, 0x02, 0xdd, 0x2a, 0x3d, 0xde, 0xe7, 0xbb, 0x24, 0xdc, 
    0xc8, 0x45, 0x04, 0xf7, 0xd4, 0x3a, 0xc5, 0x38, 0xd2, 0x34, 0xff, 0x47, 
    0xd0, 0x17, 0xf5, 0xca, 0xbd, 0x31, 0xe6, 0x02, 0x2a, 0x1e, 0x32, 0x28, 
    0x38, 0x43, 0x45, 0x21, 0xf6, 0xbd, 0x45, 0x0e, 0x00, 0xd3, 0x47, 0x0e, 
    0x11, 0x2d, 0x19, 0xd0, 0xc1, 0x1d, 0x17, 0x34, 0xef, 0x03, 0x3c, 0xc1, 
    0xf7, 0x0a, 0x4d, 0x4c, 0x41, 0x13, 0x28, 0xb0, 0xf3, 0xf8, 0xc9, 0x47, 
    0xb1, 0xf6, 0xdf, 0xbe, 0xfe, 0x46, 0x33, 0x0b, 0xba, 0xf9, 0xe9, 0x05, 
    0x06, 0x15, 0xe4, 0x09, 0x36, 0xb3, 0xfe, 0xc4, 0x03, 0xfe, 0xdc, 0xb7, 
    0xc5, 0xf2, 0x39, 0xdd, 0x41, 0x2d, 0xc8, 0xf9, 0xbc, 0xc7, 0xe0, 0x12, 
    0x49, 0xc0, 0x3e, 0x27, 0x16, 0xd1, 0x4d, 0xe1, 0xce, 0x00, 0xd6, 0x11, 
    0x1e, 0x41, 0x0f, 0xca, 0xd1, 0xef, 0xe8, 0xb0, 0xe5, 0xb6, 0xe2, 0xe8, 
    0xd8, 0xd0, 0xb1, 0x47, 0x2f, 0xe9, 0x46, 0xde, 0x21, 0xc9, 0x0f, 0xc6, 
    0xde, 0xfa, 0xc4, 0xe6, 0xcd, 0x18, 0xc0, 0x1c, 0x15, 0x7f, 0x51, 0xf6, 
    0x49, 0x61, 0x6a, 0xf3, 0xe9, 0xe1, 0x21, 0xf6, 0x33, 0xe5, 0x50, 0x2c, 
    0xec, 0x91, 0x35, 0xdb, 0xd2, 0x26, 0xd4, 0x34, 0x0d, 0xfc, 0x0b, 0xcb, 
    0x24, 0x6d, 0x24, 0x65, 0xe4, 0x33, 0xdf, 0x38, 0xcc, 0x36, 0xdb, 0xdd, 
    0xff, 0x0d, 0x3b, 0x30, 0x35, 0x42, 0xd6, 0x1a, 0x15, 0x07, 0xc3, 0xe9, 
    0xeb, 0xf8, 0x07, 0xd1, 0x05, 0xd1, 0x32, 0x12, 0xe8, 0x14, 0x07, 0xbb, 
    0xbf, 0xdf, 0x0e, 0x2d, 0x34, 0xf1, 0xdf, 0x26, 0x33, 0x38, 0xe5, 0xf1, 
    0xb9, 0x3d, 0x4a, 0xfe, 0xd4, 0xd9, 0x37, 0x40, 0xb2, 0xb0, 0x19, 0x0c, 
    0x1d, 0xe1, 0x3d, 0x4d, 0xc7, 0x0b, 0xe6, 0x3a, 0xe3, 0x2c, 0xf7, 0x32, 
    0xc6, 0x45, 0xf5, 0x13, 0xe2, 0xd2, 0x30, 0x47, 0xe5, 0x0b, 0x33, 0x3b, 
    0x21, 0xc5, 0xeb, 0xba, 0x47, 0xd5, 0x41, 0x39, 0xc9, 0x43, 0xbd, 0xf5, 
    0x34, 0x12, 0xc0, 0xf6, 0xd8, 0x31, 0xd4, 0xcc, 0x56, 0xff, 0x08, 0xb7, 
    0xe9, 0x3e, 0x33, 0x1a, 0x44, 0x3a, 0xe5, 0x09, 0x54, 0x47, 0x4b, 0xca, 
    0xc0, 0xbb, 0xcb, 0x17, 0x57, 0x3e, 0x26, 0x31, 0x0b, 0x30, 0xbd, 0x37, 
    0x47, 0x45, 0x1a, 0xae, 0x13, 0x29, 0x14, 0x20, 0xbe, 0xd1, 0xf0, 0x22, 
    0x00, 0x45, 0x3d, 0xc5, 0x45, 0x24, 0xca, 0xee, 0x3c, 0xca, 0x0b, 0xb7, 
    0xdc, 0xe9, 0x2a, 0xfa, 0xf6, 0x37, 0x4e, 0xc0, 0xf1, 0x39, 0xe4, 0xf0, 
    0x3c, 0x16, 0x1e, 0xe3, 0xc3, 0x19, 0xb9, 0x18, 0x13, 0xb4, 0x31, 0x41, 
    0x2d, 0x01, 0x49, 0x21, 0xd2, 0x05, 0x44, 0x3d, 0x49, 0xf7, 0xe4, 0xbb, 
    0xc2, 0x49, 0xef, 0xd8, 0x08, 0xcc, 0x21, 0x22, 0xfe, 0x08, 0xe7, 0x6f, 
    0x7d, 0x0b, 0x09, 0x56, 0x2e, 0x02, 0x04, 0x13, 0x6f, 0x7c, 0x25, 0x24, 
    0x1f, 0xec, 0x36, 0x5f, 0x5d, 0x7f, 0x75, 0x00, 0x01, 0x19, 0x35, 0xf2, 
    0xc7, 0xeb, 0xdf, 0xcc, 0xc1, 0xb2, 0xf0, 0x2f, 0x29, 0x10, 0x16, 0x1a, 
    0x4e, 0x3a, 0xd9, 0xdd, 0x2a, 0x41, 0x56, 0x39, 0x45, 0xc7, 0x0d, 0xc6, 
    0x2f, 0x3f, 0xb7, 0xbc, 0xcb, 0xe0, 0xbb, 0x03, 0xfa, 0x16, 0x2a, 0x4b, 
    0x38, 0x40, 0xd4, 0xe9, 0xfc, 0xce, 0xd7, 0x27, 0x43, 0xc7, 0x34, 0x2c, 
    0xb5, 0xf4, 0xf3, 0x38, 0xcb, 0xe4, 0x50, 0x47, 0x55, 0x11, 0x24, 0xd0, 
    0x4d, 0xdf, 0x3d, 0x24, 0x00, 0x43, 0xad, 0x13, 0xec, 0xb1, 0xe5, 0x18, 
    0x48, 0x3b, 0x09, 0xf8, 0x3a, 0xb9, 0x17, 0xc8, 0xad, 0x3c, 0x14, 0x25, 
    0xf8, 0xff, 0xaa, 0xd5, 0xf1, 0xab, 0xbc, 0xec, 0x4d, 0x14, 0xe3, 0x18, 
    0xea, 0xfd, 0xf9, 0xef, 0x1f, 0x26, 0x28, 0xe1, 0x4a, 0x00, 0x20, 0x3e, 
    0xd3, 0x26, 0xda, 0x17, 0xbb, 0xb2, 0x28, 0xda, 0xb9, 0xe8, 0x20, 0x2c, 
    0xc1, 0xe6, 0xea, 0x14, 0x3e, 0xc4, 0xf1, 0x16, 0xdc, 0x31, 0xab, 0xc6, 
    0x28, 0x4c, 0xc8, 0x2b, 0x54, 0xe8, 0xfb, 0xfb, 0x1d, 0x02, 0x16, 0x06, 
    0xfe, 0xc6, 0xe2, 0x32, 0xec, 0xbb, 0xe5, 0x13, 0xf9, 0xc0, 0x4b, 0xfc, 
    0x3e, 0x56, 0xd1, 0x05, 0x4d, 0x08, 0x19, 0x3e, 0x1b, 0x20, 0xf1, 0xb7, 
    0x40, 0x22, 0x34, 0xea, 0xb2, 0xb6, 0x06, 0xc9, 0xd0, 0xe6, 0x22, 0xe9, 
    0xaf, 0xcd, 0x08, 0xc1, 0xec, 0xce, 0xec, 0x3f, 0x11, 0xc3, 0x0a, 0xbd, 
    0x13, 0x71, 0x37, 0x6b, 0x03, 0x5d, 0x03, 0xe5, 0x18, 0x54, 0x17, 0x79, 
    0x30, 0x1d, 0x0a, 0x7f, 0x1c, 0x08, 0x47, 0x02, 0x3e, 0x4f, 0xe9, 0x32, 
    0x37, 0x3b, 0x49, 0x08, 0x5b, 0xe1, 0xea, 0x3f, 0xd6, 0x3a, 0x41, 0x2f, 
    0x33, 0xb7, 0xb5, 0xbc, 0xe4, 0x02, 0x0e, 0x05, 0xcd, 0x30, 0xd0, 0xe5, 
    0x38, 0x43, 0x13, 0xc7, 0x23, 0xf4, 0xdf, 0xde, 0xd7, 0xde, 0xdd, 0x35, 
    0x0b, 0xac, 0x13, 0xcf, 0x1b, 0x15, 0x32, 0x1a, 0x56, 0xf4, 0x47, 0xcf, 
    0xb6, 0xc2, 0x22, 0x14, 0x3a, 0x25, 0xc4, 0xbe, 0x1c, 0xb8, 0xf8, 0x20, 
    0xc4, 0xd3, 0xf7, 0xe7, 0xac, 0xf2, 0xb0, 0x18, 0x3d, 0xca, 0xf1, 0xfa, 
    0x48, 0x36, 0x21, 0x2f, 0x3e, 0x0e, 0xd3, 0x15, 0x24, 0x2d, 0xad, 0x00, 
    0x28, 0x0d, 0x14, 0xe4, 0x08, 0x11, 0xd2, 0xbb, 0xf9, 0x01, 0x46, 0xd4, 
    0xcd, 0xb9, 0xf0, 0xe3, 0x0a, 0x47, 0xb4, 0xc8, 0x15, 0xf5, 0xe7, 0xf4, 
    0x0f, 0x29, 0xfe, 0xd3, 0xf0, 0xf3, 0xd5, 0x00, 0x1b, 0x30, 0x17, 0xe1, 
    0x0c, 0x23, 0xe6, 0xe7, 0xd9, 0xde, 0x1b, 0x0f, 0xe0, 0xe9, 0xe6, 0x30, 
    0x18, 0xfb, 0xe7, 0xde, 0xd6, 0xd5, 0xe8, 0xf0, 0xfc, 0x2d, 0xf5, 0xfc, 
    0xf6, 0xe8, 0x20, 0x2b, 0xee, 0x12, 0x22, 0xd4, 0xd8, 0xdd, 0xe5, 0x08, 
    0xe4, 0x23, 0x03, 0xf9, 0xe6, 0xf1, 0xd8, 0x2e, 0xfa, 0x20, 0x17, 0xfc, 
    0xd9, 0xe5, 0xfc, 0xd5, 0x15, 0xe7, 0xe9, 0x03, 0x0f, 0x17, 0x05, 0x0d, 
    0xfc, 0x24, 0xed, 0xe3, 0xef, 0xfc, 0xe8, 0xe0, 0x16, 0xdc, 0x08, 0xdd, 
    0xfe, 0x1b, 0x26, 0x24, 0xeb, 0x1a, 0x2a, 0x22, 0x8d, 0xde, 0x71, 0x25, 
    0xb5, 0x92, 0xf0, 0xf9, 0x18, 0x05, 0x96, 0x5e, 0xdf, 0xa7, 0x9e, 0x3f, 
    0x0e, 0xfd, 0x6d, 0xae, 0x3f, 0xcd, 0x04, 0x20, 0xfd, 0x2e, 0xef, 0x0d, 
    0xd0, 0x81, 0x49, 0xbb, 0x10, 0xe9, 0xf6, 0x1b, 0xee, 0x15, 0xf8, 0xe3, 
    0x07, 0xd6, 0xec, 0x06, 0xe7, 0x16, 0x16, 0xf8, 0xd6, 0x0a, 0xda, 0xe7, 
    0xe3, 0x0d, 0xf5, 0x2d, 0xd5, 0x2f, 0xd0, 0x16, 0x0b, 0xe2, 0xe9, 0xfd, 
    0xf6, 0xef, 0x0e, 0xea, 0xf7, 0xfe, 0x27, 0xe8, 0xdd, 0x2e, 0x04, 0x25, 
    0x06, 0xd1, 0xd4, 0xd1, 0x2a, 0xe1, 0x2d, 0xdc, 0xdc, 0x00, 0x22, 0x00, 
    0xe6, 0x0e, 0x1d, 0xd7, 0x20, 0xf6, 0x15, 0x01, 0x1a, 0x04, 0x2d, 0x1f, 
    0xf6, 0x1b, 0xd4, 0xf0, 0xfd, 0x17, 0xf0, 0xd4, 0xe0, 0xe1, 0x29, 0x07, 
    0x1c, 0xf4, 0x22, 0xdc, 0xf3, 0xeb, 0x14, 0xe3, 0x22, 0xea, 0xf1, 0xec, 
    0x18, 0xd2, 0xda, 0x2c, 0x26, 0x3d, 0xf1, 0xbe, 0x26, 0x06, 0x2e, 0x12, 
    0x3e, 0xc2, 0xba, 0x08, 0xbf, 0xca, 0x42, 0x15, 0x12, 0xc0, 0x3e, 0xc1, 
    0x40, 0xd1, 0x27, 0x1c, 0xc5, 0xcf, 0x14, 0xd8, 0x20, 0x08, 0xe6, 0xff, 
    0xd5, 0x0f, 0xd6, 0x36, 0xbd, 0x24, 0xdc, 0xba, 0xc4, 0x3d, 0xd6, 0xd9, 
    0xe2, 0xdf, 0x38, 0xcb, 0xba, 0xda, 0x3d, 0x2b, 0xc4, 0x17, 0x08, 0xe0, 
    0xdb, 0x0b, 0xfb, 0x28, 0xea, 0xe9, 0x25, 0x21, 0xe5, 0x1d, 0x08, 0xd0, 
    0x3c, 0xec, 0xf1, 0xf4, 0x19, 0x12, 0x1c, 0xfc, 0x42, 0xca, 0x42, 0x08, 
    0xe3, 0xe2, 0x27, 0x45, 0x0c, 0x27, 0xf5, 0xc2, 0x00, 0xfb, 0xc7, 0x24, 
    0xc6, 0xf2, 0x20, 0x07, 0xed, 0xea, 0x29, 0x6c, 0xb6, 0xbc, 0x17, 0x09, 
    0xef, 0x4f, 0xe8, 0x02, 0xc5, 0xac, 0xd4, 0x7f, 0x2f, 0x2c, 0x5d, 0xd5, 
    0x4d, 0xfd, 0x63, 0x31, 0x33, 0xf4, 0x5a, 0x2e, 0xc3, 0xa6, 0x33, 0xb1, 
    0xff, 0xba, 0x13, 0xcd, 0x11, 0x12, 0xc9, 0xec, 0xda, 0xc4, 0xe3, 0x27, 
    0xd7, 0xf6, 0x3f, 0xbd, 0x2d, 0x3e, 0x34, 0xd3, 0x0a, 0x14, 0x1e, 0xcf, 
    0x3e, 0x23, 0x45, 0x2a, 0x3e, 0xdf, 0x07, 0xfb, 0xc7, 0x35, 0xd8, 0x3e, 
    0x29, 0xdd, 0x20, 0xca, 0xdd, 0x2d, 0xda, 0xc5, 0x26, 0xdd, 0xbf, 0xe4, 
    0x27, 0xd3, 0x32, 0xc0, 0xd0, 0x45, 0x22, 0x22, 0xee, 0x0f, 0x2a, 0x39, 
    0x1d, 0x38, 0x18, 0xbb, 0xbb, 0x25, 0x03, 0x2f, 0xdf, 0x2e, 0xc9, 0xbe, 
    0x19, 0xe0, 0xd1, 0x27, 0xf4, 0xda, 0xc6, 0x44, 0x37, 0xc0, 0x23, 0xc6, 
    0xfa, 0x30, 0xf3, 0xc4, 0x26, 0xcd, 0xc3, 0x2b, 0x31, 0x18, 0x28, 0xe1, 
    0x21, 0xd7, 0x07, 0xb3, 0xd3, 0xf0, 0xff, 0xf7, 0xb1, 0xf2, 0xfc, 0xc3, 
    0xb4, 0xfe, 0x18, 0x4f, 0x3b, 0x4b, 0x27, 0xc8, 0xba, 0xd7, 0xda, 0x17, 
    0xbf, 0x22, 0x30, 0xec, 0xfd, 0x09, 0x1e, 0xb2, 0x45, 0xf0, 0xdf, 0xe6, 
    0xef, 0x29, 0x1b, 0xdb, 0x2e, 0xf2, 0xbd, 0x01, 0x10, 0x26, 0xca, 0x26, 
    0xb2, 0x32, 0x4d, 0x35, 0xef, 0x19, 0xc3, 0xd1, 0x44, 0x21, 0x4d, 0xed, 
    0xe2, 0x25, 0xd9, 0x26, 0xde, 0x2a, 0xd4, 0xf8, 0xec, 0x09, 0x06, 0xd9, 
    0xb2, 0xc1, 0x37, 0x20, 0x3a, 0xe2, 0xcf, 0xcd, 0x1c, 0xbb, 0x42, 0xfd, 
    0xc9, 0x27, 0x45, 0x31, 0xf2, 0x28, 0x10, 0x35, 0xbe, 0x13, 0xed, 0x29, 
    0x5e, 0x52, 0x81, 0xa0, 0x27, 0x3f, 0xff, 0xeb, 0xf9, 0xde, 0x60, 0xc0, 
    0x3a, 0x58, 0x7a, 0xdd, 0xba, 0xd2, 0xce, 0x55, 0x88, 0xe5, 0xfe, 0x9c, 
    0xfa, 0xf1, 0xd6, 0xb3, 0x5c, 0x4b, 0x98, 0x3a, 0x34, 0x2d, 0xe6, 0x25, 
    0x02, 0x48, 0x05, 0xef, 0xb1, 0x3f, 0xef, 0xd7, 0xdd, 0x2d, 0xca, 0xd8, 
    0xc7, 0x18, 0xd9, 0x08, 0xf0, 0xd7, 0xc4, 0xbd, 0xce, 0xe5, 0xe0, 0xe9, 
    0xe0, 0x37, 0xea, 0xca, 0x29, 0xcf, 0x47, 0x05, 0xf3, 0xb1, 0xf3, 0xd5, 
    0xcf, 0xc5, 0x45, 0x04, 0x2e, 0xea, 0xc9, 0x4c, 0xe5, 0xb8, 0x42, 0x46, 
    0x29, 0xf6, 0xf7, 0xef, 0xee, 0xd2, 0xd3, 0xe2, 0xbc, 0x37, 0x49, 0xe5, 
    0x18, 0x27, 0x0d, 0x22, 0xfc, 0xf6, 0x0b, 0xdb, 0xed, 0xde, 0xb6, 0x33, 
    0xcf, 0x26, 0xbf, 0xc8, 0xc4, 0x43, 0x2c, 0xcb, 0xd6, 0xfa, 0xfd, 0xbc, 
    0x3d, 0xe8, 0xb4, 0x1f, 0xff, 0x15, 0xb5, 0x15, 0xd2, 0x1b, 0x07, 0x1d, 
    0xf8, 0x00, 0x00, 0xca, 0xe1, 0xd0, 0xc7, 0x02, 0x1f, 0x02, 0xfb, 0x14, 
    0xe0, 0x3c, 0x32, 0x01, 0x09, 0xd8, 0x1a, 0x1c, 0xee, 0x17, 0x24, 0xf1, 
    0x3b, 0x02, 0x1e, 0xd3, 0x04, 0x00, 0xf4, 0x38, 0xf2, 0x13, 0xfb, 0xc2, 
    0x2e, 0xf4, 0xc8, 0xd2, 0x06, 0x34, 0xff, 0x17, 0xc2, 0xde, 0xd4, 0xfd, 
    0xe6, 0x1f, 0xfe, 0x31, 0x20, 0x28, 0x08, 0x14, 0xe9, 0x27, 0x1f, 0xc9, 
    0xcc, 0xc9, 0xde, 0x0a, 0xe8, 0x3d, 0xd0, 0x3b, 0x20, 0xff, 0xfb, 0xd6, 
    0x11, 0xe3, 0x0a, 0xcc, 0xd8, 0x02, 0xcf, 0x32, 0xfd, 0x30, 0x1b, 0x17, 
    0x3a, 0xe4, 0xe6, 0xe9, 0xcb, 0x2d, 0x0a, 0xe9, 0xfb, 0xa2, 0x64, 0x19, 
    0xe4, 0xed, 0xd6, 0x4a, 0x5c, 0x41, 0xda, 0x7f, 0xd9, 0x13, 0xfe, 0x4e, 
    0x5d, 0x11, 0x5b, 0xe3, 0x32, 0xc6, 0x02, 0x02, 0x1f, 0x04, 0x5e, 0x5d, 
    0xdf, 0xe9, 0x29, 0xdb, 0xfc, 0x27, 0x1d, 0x0f, 0x35, 0xda, 0x0f, 0x0a, 
    0x35, 0x3f, 0x1d, 0xe3, 0x24, 0x32, 0xdf, 0x20, 0x04, 0x3f, 0x09, 0x1d, 
    0xf8, 0xd1, 0x23, 0xdc, 0xe6, 0x1e, 0x16, 0x12, 0x22, 0xff, 0x3a, 0xf2, 
    0xcb, 0x1d, 0x3f, 0x16, 0x1e, 0xeb, 0xe4, 0xfe, 0x0e, 0xc9, 0xc8, 0xcc, 
    0x31, 0xee, 0x02, 0xec, 0xfc, 0x18, 0x35, 0x09, 0xdf, 0x3c, 0xdc, 0x3d, 
    0x2e, 0xc2, 0xda, 0xee, 0xc3, 0x2c, 0xe2, 0xf7, 0xc1, 0x40, 0xf0, 0xd6, 
    0xe2, 0x18, 0xd5, 0xc2, 0xfe, 0xfc, 0xe0, 0x28, 0xfb, 0xfa, 0x2b, 0x2e, 
    0xfb, 0xf6, 0x1d, 0x1e, 0x33, 0xdd, 0x36, 0x31, 0xd0, 0xec, 0xed, 0x3f, 
    0x1f, 0x3d, 0xf4, 0x3d, 0xb6, 0x3d, 0xff, 0xc2, 0xdf, 0xeb, 0x18, 0xcd, 
    0xbe, 0x0d, 0xb8, 0x1b, 0x01, 0xf6, 0xe9, 0x3f, 0x1d, 0x21, 0xe1, 0x2d, 
    0xec, 0xaf, 0x4e, 0x0c, 0x0c, 0xfc, 0x13, 0xc3, 0x42, 0xc2, 0xe2, 0x46, 
    0x36, 0xf1, 0x3d, 0x41, 0xb1, 0x42, 0xfa, 0x10, 0xc2, 0xd0, 0x27, 0xac, 
    0x36, 0xc6, 0xf4, 0x42, 0x45, 0xd1, 0x2c, 0x52, 0xf7, 0x0c, 0x11, 0x4a, 
    0x10, 0x15, 0x1f, 0x39, 0x1c, 0x2c, 0x06, 0xef, 0xea, 0xad, 0x17, 0x13, 
    0x36, 0xdd, 0xe9, 0xfb, 0xd0, 0x20, 0xb7, 0x21, 0xf6, 0xb2, 0x1a, 0xf1, 
    0x3a, 0x05, 0xea, 0xc0, 0xf5, 0x43, 0xda, 0x24, 0xda, 0xeb, 0x2b, 0xe0, 
    0xbb, 0xc1, 0x08, 0x3e, 0x10, 0x00, 0xce, 0xcf, 0x5a, 0x40, 0x43, 0x03, 
    0x0a, 0x31, 0x68, 0x33, 0x38, 0x19, 0xec, 0xab, 0xc4, 0xda, 0x36, 0x4a, 
    0x01, 0x74, 0xd7, 0x36, 0x30, 0x3d, 0xf2, 0x02, 0xdf, 0x7f, 0xca, 0x1e, 
    0xb3, 0xac, 0x4a, 0x1e, 0x0a, 0xc6, 0xe9, 0xda, 0x55, 0xd2, 0x47, 0xf6, 
    0xdb, 0x3f, 0xf5, 0xe2, 0x32, 0x47, 0x0c, 0xf4, 0x4a, 0x05, 0xb9, 0xbb, 
    0x01, 0x3c, 0xf2, 0x4c, 0xe7, 0xdc, 0xb7, 0x1d, 0x46, 0xce, 0xca, 0xe4, 
    0xc3, 0x2b, 0x26, 0xc9, 0xb9, 0xe4, 0xd6, 0x07, 0x3b, 0xd8, 0x36, 0x26, 
    0x39, 0xb4, 0x21, 0x17, 0xe6, 0x48, 0xe5, 0xfd, 0xac, 0x11, 0xc6, 0x1e, 
    0x0e, 0x3a, 0x10, 0x3d, 0xf2, 0x1a, 0xcd, 0xd0, 0x2d, 0x3e, 0xb9, 0xd2, 
    0xab, 0xef, 0xaf, 0xfd, 0x37, 0xfb, 0xd9, 0xd3, 0x27, 0xd3, 0x3b, 0xd0, 
    0x1e, 0x19, 0xac, 0x48, 0x04, 0x1d, 0xbc, 0x4b, 0xd0, 0xf9, 0xf5, 0xbf, 
    0xfe, 0x3b, 0xc3, 0x26, 0x04, 0x03, 0x0d, 0x2c, 0x19, 0x10, 0xd2, 0xdb, 
    0xcf, 0x43, 0xc1, 0xd0, 0xc0, 0xbe, 0x20, 0xc9, 0xe2, 0xdd, 0x2e, 0x46, 
    0x10, 0x18, 0xdd, 0x16, 0xf0, 0xe1, 0xe6, 0x0f, 0x13, 0x07, 0x27, 0xfe, 
    0x30, 0xde, 0xd1, 0x34, 0x25, 0xc0, 0x29, 0xc3, 0xb8, 0xc0, 0x43, 0x02, 
    0x0c, 0xbe, 0x2f, 0x17, 0x0d, 0xca, 0x2f, 0x2f, 0xe0, 0x1b, 0xde, 0x03, 
    0xff, 0x34, 0xee, 0xff, 0x11, 0xe6, 0x06, 0x08, 0x1f, 0xf5, 0x09, 0x13, 
    0xfe, 0x1a, 0x1e, 0x04, 0xee, 0xd2, 0x46, 0x34, 0x39, 0x0c, 0xff, 0xe7, 
    0xe4, 0xfd, 0x39, 0x24, 0xdf, 0x2f, 0x1f, 0xce, 0xfb, 0xd3, 0x3e, 0xc7, 
    0xe2, 0xc8, 0x7f, 0x29, 0x0e, 0x18, 0x05, 0x20, 0x50, 0x7c, 0x28, 0x20, 
    0x17, 0x01, 0xe8, 0x37, 0x11, 0x6c, 0x0a, 0x2f, 0x10, 0xe7, 0x18, 0x42, 
    0x6f, 0x75, 0xfc, 0x3c, 0x16, 0x09, 0x32, 0x36, 0xd6, 0x03, 0x06, 0xf6, 
    0xea, 0x27, 0xd6, 0xd9, 0x39, 0x00, 0xc4, 0x28, 0x09, 0x31, 0xd6, 0xf4, 
    0xfb, 0x28, 0x3e, 0xd9, 0xd6, 0xd0, 0xde, 0x15, 0xc7, 0x34, 0x03, 0x2f, 
    0xbb, 0x3c, 0x1f, 0x38, 0x39, 0xe8, 0xd7, 0xf4, 0x47, 0xed, 0x32, 0xcf, 
    0x31, 0x0d, 0xc8, 0x0d, 0xf5, 0xf8, 0xc2, 0xe6, 0x14, 0x02, 0xcb, 0xff, 
    0xe8, 0x2a, 0xd6, 0xd3, 0x15, 0x2d, 0x18, 0x16, 0x46, 0xbc, 0xd8, 0x01, 
    0x44, 0xe7, 0x1e, 0x2f, 0xbc, 0xcd, 0x2c, 0x32, 0xef, 0x3b, 0x47, 0x2e, 
    0x05, 0x1e, 0x20, 0x00, 0xc7, 0xf2, 0x1e, 0x39, 0xe1, 0xe1, 0xfb, 0x09, 
    0xff, 0x30, 0x05, 0x0c, 0xd5, 0x31, 0xf2, 0xd8, 0x1f, 0xc6, 0xf1, 0xe7, 
    0x25, 0x39, 0x1c, 0xe2, 0x2c, 0x27, 0xba, 0xd1, 0xe3, 0xac, 0xf6, 0xcd, 
    0x16, 0xff, 0xd8, 0x29, 0xdd, 0xb6, 0x51, 0xc3, 0x04, 0xd4, 0xe8, 0x11, 
    0x26, 0x29, 0x21, 0xbd, 0xb3, 0xe3, 0xbc, 0x4c, 0x31, 0x30, 0x46, 0xc3, 
    0xcc, 0x06, 0x25, 0xbb, 0x38, 0x3a, 0xd7, 0x07, 0x0b, 0x44, 0x48, 0x13, 
    0x02, 0xf7, 0xc5, 0xb7, 0xf1, 0x51, 0x3b, 0x11, 0xe2, 0xbc, 0x2a, 0xd1, 
    0xb6, 0x2c, 0xff, 0xe1, 0x50, 0x15, 0xb6, 0x51, 0xeb, 0xfd, 0xec, 0x30, 
    0xe5, 0x27, 0xb3, 0x48, 0x4e, 0xdb, 0xe0, 0x10, 0x2c, 0xda, 0xfa, 0xfc, 
    0xd2, 0xc0, 0x0d, 0xde, 0x4b, 0xe5, 0xe6, 0x54, 0x64, 0xfb, 0xde, 0x81, 
    0x43, 0x58, 0x2c, 0xc1, 0xbd, 0xf2, 0x00, 0xd6, 0x6b, 0x52, 0x0f, 0x02, 
    0x01, 0x97, 0xa7, 0x59, 0x85, 0x27, 0xdf, 0xbe, 0xf9, 0x9b, 0xcf, 0x83, 
    0xf1, 0xd3, 0x0c, 0x49, 0xac, 0x09, 0xce, 0xec, 0x20, 0xe9, 0x03, 0xd5, 
    0x47, 0xb0, 0xcd, 0x3d, 0x3a, 0x4f, 0x22, 0x35, 0xb5, 0xc4, 0xc7, 0x3a, 
    0x2a, 0x1d, 0x54, 0xe6, 0xda, 0xbd, 0x48, 0xbe, 0xb6, 0x18, 0x4e, 0xb7, 
    0xbf, 0xea, 0xe7, 0x07, 0x30, 0xfe, 0x14, 0x39, 0xc9, 0x08, 0xb2, 0xfe, 
    0x24, 0xd5, 0xbe, 0xf5, 0x09, 0xe1, 0x3f, 0x4a, 0xca, 0xad, 0x41, 0x14, 
    0x54, 0x09, 0xbb, 0xd7, 0x13, 0xef, 0x31, 0xd9, 0xe7, 0x47, 0xe5, 0x1a, 
    0x1a, 0xf9, 0x06, 0x1b, 0x06, 0x09, 0x44, 0x15, 0xd2, 0xb4, 0xc1, 0xb1, 
    0x0b, 0x49, 0xb0, 0xed, 0xbb, 0x02, 0x13, 0x0f, 0x15, 0xb3, 0x2e, 0x2f, 
    0x0a, 0x15, 0xe0, 0xe3, 0x07, 0xfc, 0x20, 0x0c, 0x12, 0xe6, 0xe3, 0xf4, 
    0xf9, 0x11, 0xf5, 0x08, 0xee, 0x0b, 0xf0, 0x1b, 0x16, 0x09, 0x09, 0xec, 
    0x0a, 0xe0, 0xf1, 0x1b, 0xe3, 0x0d, 0xeb, 0x17, 0x10, 0xf0, 0xf7, 0x16, 
    0xe0, 0x05, 0xed, 0x0f, 0xf8, 0x1c, 0x06, 0xdf, 0x0a, 0xeb, 0xef, 0x19, 
    0xf0, 0xe6, 0xf5, 0x07, 0x17, 0x1b, 0xee, 0x18, 0xea, 0x18, 0x13, 0xe5, 
    0xe3, 0xef, 0xe7, 0x0d, 0x0f, 0xe0, 0xfa, 0x1a, 0x18, 0x21, 0x12, 0x1c, 
    0xf7, 0x07, 0xf8, 0xf9, 0x1b, 0x0b, 0xe7, 0xe7, 0xe1, 0x1c, 0x15, 0x20, 
    0x18, 0x15, 0xf5, 0xf2, 0x15, 0x20, 0x18, 0x02, 0x20, 0x15, 0x0f, 0xf1, 
    0xf4, 0x15, 0xfd, 0xe1, 0x21, 0xfd, 0xe2, 0xf8, 0x16, 0xd9, 0x11, 0x95, 
    0xcd, 0x81, 0xeb, 0xee, 0x01, 0x29, 0xdb, 0x14, 0xc4, 0xea, 0xdd, 0xd2, 
    0xdb, 0x1b, 0xbb, 0xdd, 0xbd, 0xf8, 0xed, 0x0d, 0xf1, 0x24, 0x07, 0x29, 
    0x14, 0x02, 0x0a, 0xec, 0xeb, 0xfa, 0x07, 0xff, 0x18, 0xec, 0xf0, 0x03, 
    0xe3, 0x00, 0xee, 0x16, 0xe9, 0x1a, 0xf7, 0xef, 0x0c, 0xe9, 0x1e, 0x06, 
    0x03, 0x06, 0xe0, 0xe9, 0xfd, 0x1f, 0x11, 0x10, 0xfb, 0xed, 0x14, 0x03, 
    0xff, 0x03, 0xf0, 0xf8, 0xe2, 0xe1, 0xdf, 0x21, 0x00, 0x1e, 0xec, 0x1b, 
    0x05, 0xdf, 0xf3, 0x16, 0xf2, 0x08, 0x09, 0xf5, 0xe1, 0xed, 0xe4, 0x0f, 
    0xf2, 0xf8, 0x01, 0xfa, 0xfc, 0xe1, 0x20, 0x1b, 0xe7, 0x17, 0x0a, 0x1a, 
    0xfb, 0xe5, 0x0c, 0xe0, 0xe2, 0x16, 0xf9, 0x12, 0x1f, 0xea, 0xf0, 0xfe, 
    0x1a, 0x01, 0xe9, 0xe6, 0x02, 0xfe, 0x10, 0xee, 0xf3, 0xe4, 0x04, 0xf8, 
    0xbf, 0xe0, 0x34, 0x2f, 0x39, 0x3b, 0x2d, 0xd8, 0xd7, 0x3f, 0xf8, 0xf8, 
    0xc8, 0x3c, 0xf8, 0x35, 0xc0, 0xf9, 0xde, 0x22, 0x13, 0xcf, 0xdc, 0xd8, 
    0xdb, 0x31, 0x46, 0x0b, 0xf5, 0xc6, 0x49, 0xf1, 0xfd, 0xdb, 0xc5, 0x06, 
    0x0f, 0xe1, 0x4b, 0x24, 0x42, 0x21, 0x06, 0x21, 0xd0, 0xca, 0x41, 0x08, 
    0xee, 0x1b, 0xf8, 0x2d, 0xde, 0xef, 0x2e, 0xfc, 0x47, 0xd9, 0x43, 0x2b, 
    0x00, 0xd4, 0xc8, 0x35, 0x3f, 0x12, 0xc5, 0xfd, 0xf0, 0x07, 0x1b, 0xbf, 
    0x2a, 0x31, 0xc7, 0xf8, 0xf8, 0x3b, 0xf8, 0x3d, 0xcb, 0x27, 0xf9, 0xc2, 
    0x28, 0x4a, 0x29, 0xf0, 0xdc, 0x0c, 0xe1, 0x2b, 0xc8, 0xbb, 0x25, 0xe3, 
    0x26, 0x83, 0x62, 0x41, 0x3b, 0xe8, 0xd5, 0x38, 0x7b, 0x4b, 0x38, 0x2a, 
    0x20, 0xdb, 0x0b, 0x5d, 0x1d, 0x2e, 0x55, 0x03, 0x46, 0x00, 0x7f, 0x1d, 
    0x6b, 0x4f, 0x28, 0x3e, 0x00, 0x25, 0xfb, 0x2f, 0x07, 0xd0, 0x34, 0xc1, 
    0x21, 0x22, 0x00, 0x2d, 0x05, 0xc9, 0xf2, 0xc2, 0x22, 0xe8, 0x25, 0xe7, 
    0xda, 0x0f, 0xda, 0xb7, 0x07, 0xea, 0xfe, 0xb9, 0x04, 0x3b, 0xc0, 0x0f, 
    0x13, 0x39, 0x0e, 0x0c, 0x25, 0xe3, 0x20, 0xd4, 0xd8, 0x3c, 0xcd, 0x16, 
    0xf0, 0xdf, 0xc2, 0x33, 0x06, 0x33, 0xcf, 0xd9, 0xf1, 0xfa, 0x1f, 0x3d, 
    0xbe, 0x44, 0x31, 0xf8, 0xdd, 0x42, 0xfb, 0x10, 0xb8, 0xd8, 0xdc, 0x1f, 
    0x33, 0x33, 0x08, 0x12, 0x0c, 0x2e, 0x3a, 0xdf, 0x3b, 0xc9, 0x1c, 0xc9, 
    0x44, 0x17, 0xbf, 0xd5, 0x40, 0xf2, 0x18, 0x0f, 0xd4, 0xe4, 0x47, 0x40, 
    0x48, 0x38, 0xbc, 0xcd, 0xc0, 0xd1, 0x41, 0x02, 0xb0, 0x48, 0x0c, 0xf2, 
    0xcd, 0x2d, 0x05, 0x30, 0x30, 0xd6, 0x37, 0x54, 0xe8, 0xf8, 0x46, 0xd2, 
    0xf8, 0xae, 0x0c, 0xb6, 0x07, 0xad, 0xe5, 0xea, 0xc0, 0xb0, 0x39, 0xcb, 
    0xf3, 0xb0, 0x4b, 0xab, 0xd3, 0xd2, 0x4a, 0xb1, 0x05, 0x03, 0xcb, 0x34, 
    0x16, 0x4c, 0x0c, 0xc8, 0xf4, 0xe1, 0x08, 0xce, 0xe1, 0x1a, 0x36, 0x4f, 
    0xd5, 0xee, 0x09, 0xe3, 0x2c, 0x31, 0x55, 0xc0, 0x32, 0xfb, 0x13, 0xb3, 
    0xd8, 0xfd, 0x48, 0x29, 0xdc, 0x28, 0x50, 0xdc, 0x42, 0xd8, 0x0b, 0xe0, 
    0xd2, 0xd6, 0xbd, 0xe0, 0x2e, 0xaa, 0x01, 0xd1, 0x56, 0xc1, 0xe4, 0x46, 
    0xbc, 0x52, 0xd9, 0x28, 0xf6, 0x3d, 0x3d, 0x35, 0x59, 0x0b, 0xa4, 0xe0, 
    0x01, 0x59, 0x2d, 0xbe, 0x2f, 0xd9, 0xce, 0xe5, 0x37, 0xe9, 0x2f, 0xb1, 
    0x26, 0x22, 0xec, 0x19, 0x16, 0x6f, 0x04, 0x29, 0xc2, 0x3a, 0xff, 0xc0, 
    0x27, 0x7f, 0x10, 0x44, 0x21, 0xaa, 0xc4, 0x01, 0xe5, 0xf7, 0xfc, 0xcb, 
    0x47, 0x0b, 0x05, 0xc4, 0xdd, 0xc9, 0x02, 0x0b, 0x08, 0x46, 0xb1, 0xfa, 
    0xca, 0xd2, 0xe0, 0x25, 0x48, 0x2d, 0x09, 0x42, 0x48, 0xb0, 0x47, 0xbc, 
    0x05, 0x45, 0xc7, 0x47, 0x0c, 0xc9, 0xce, 0xfe, 0x09, 0x11, 0xed, 0x49, 
    0x36, 0xf3, 0x28, 0xcf, 0xd3, 0x4b, 0x14, 0xf7, 0xd9, 0x36, 0x36, 0xf8, 
    0xd5, 0xea, 0x44, 0xbd, 0x28, 0xac, 0x47, 0xfb, 0xc9, 0x0c, 0xc7, 0xd5, 
    0x43, 0x41, 0xb0, 0xe0, 0xf9, 0xea, 0x28, 0xec, 0xf2, 0xc9, 0x17, 0xbe, 
    0xf1, 0xd2, 0x2f, 0x0e, 0x26, 0xba, 0xe9, 0x4a, 0xfc, 0x43, 0x21, 0xb3, 
    0x25, 0x02, 0x50, 0x49, 0x3f, 0x0e, 0xcc, 0x13, 0xfa, 0x11, 0xe0, 0x43, 
    0x04, 0xdf, 0xdb, 0xc7, 0xf6, 0xdb, 0x29, 0xdb, 0xd6, 0x33, 0xc8, 0x3b, 
    0x31, 0xd0, 0x05, 0x00, 0x26, 0x00, 0x19, 0x2d, 0x44, 0xe2, 0x0f, 0x0c, 
    0xd4, 0xef, 0xbc, 0x18, 0xfe, 0xd8, 0xcb, 0x22, 0xf4, 0x46, 0x18, 0xd3, 
    0xe8, 0xde, 0x42, 0x13, 0xf8, 0xf3, 0x1d, 0x02, 0x0e, 0xe5, 0x43, 0x32, 
    0xf6, 0x3e, 0xe0, 0xbd, 0xf7, 0xe6, 0xf8, 0xe4, 0xf4, 0xe5, 0x2b, 0xfe, 
    0xf9, 0x14, 0x45, 0xf7, 0xf4, 0xde, 0x18, 0xc1, 0x42, 0x28, 0xe0, 0xe5, 
    0xe5, 0xd1, 0xcc, 0xef, 0x07, 0x41, 0x2c, 0x35, 0xfa, 0x3e, 0x05, 0x34, 
    0x0b, 0x01, 0xe2, 0x15, 0xeb, 0x43, 0x1a, 0x08, 0x3f, 0x00, 0x73, 0x50, 
    0x2c, 0x14, 0x58, 0xf8, 0x57, 0x3a, 0x15, 0x6e, 0x1f, 0x58, 0x7f, 0x47, 
    0xfb, 0x42, 0xf1, 0x24, 0xee, 0x44, 0x56, 0x73, 0x0a, 0x0e, 0x14, 0x59, 
    0xd9, 0x12, 0xd3, 0xd9, 0xcb, 0xc9, 0xe4, 0xff, 0xf2, 0xdf, 0xf7, 0x16, 
    0x05, 0x20, 0xc2, 0xc8, 0x34, 0x1f, 0x14, 0xc1, 0xda, 0x0a, 0x0c, 0xf1, 
    0x2d, 0xd3, 0x00, 0xd9, 0x1c, 0xc8, 0x39, 0xbd, 0xc5, 0x3a, 0x0f, 0x2e, 
    0xfb, 0x38, 0x33, 0xf5, 0xe1, 0x45, 0x03, 0xd8, 0xd4, 0xd0, 0x41, 0x2f, 
    0x17, 0xbe, 0x1d, 0xbf, 0x37, 0x07, 0x44, 0xdb, 0x1a, 0x12, 0x23, 0x3e, 
    0x33, 0xcd, 0x1d, 0x04, 0xe6, 0x30, 0x20, 0x11, 0x18, 0x12, 0xe5, 0x26, 
    0x01, 0xef, 0xd3, 0x2b, 0x31, 0xd8, 0x3e, 0xd8, 0x42, 0x30, 0xe0, 0xf8, 
    0x2e, 0x3e, 0x42, 0x33, 0xc6, 0xd0, 0x02, 0x30, 0x12, 0xd5, 0x10, 0x0a, 
    0x44, 0xda, 0xeb, 0x36, 0xf6, 0xe7, 0x50, 0xf6, 0x25, 0x35, 0x54, 0x02, 
    0xd1, 0x39, 0xb4, 0xcc, 0xb3, 0x45, 0xf1, 0xd6, 0x1f, 0xc4, 0xad, 0x40, 
    0xd3, 0xc4, 0xf2, 0x4a, 0x06, 0x09, 0xfe, 0x1d, 0x54, 0x40, 0x4f, 0x18, 
    0xfa, 0xd5, 0x17, 0x17, 0x25, 0xf9, 0xfc, 0x25, 0xec, 0x2c, 0x1c, 0x2e, 
    0x43, 0xec, 0x2b, 0xed, 0xe1, 0xca, 0xbb, 0xab, 0xaa, 0xfd, 0x15, 0xec, 
    0xba, 0x2f, 0x37, 0xd2, 0xfc, 0x2d, 0xdc, 0x10, 0x3e, 0xd8, 0xb1, 0xdb, 
    0x44, 0x49, 0x3b, 0xdf, 0x19, 0xc6, 0xd6, 0x41, 0x37, 0x4b, 0xac, 0xc6, 
    0x51, 0x1f, 0xee, 0x3d, 0xf5, 0x00, 0xf4, 0x23, 0xb9, 0xe9, 0x00, 0xb8, 
    0xf3, 0x1d, 0xe5, 0xa8, 0x54, 0x1f, 0x6f, 0x02, 0xcc, 0xe3, 0x7a, 0xa2, 
    0xdc, 0x6b, 0x2a, 0xde, 0xc8, 0xda, 0xdf, 0x6a, 0x93, 0x0f, 0xd6, 0x8d, 
    0xad, 0xb5, 0xcb, 0x81, 0x73, 0x56, 0x85, 0x0f, 0x0d, 0x0a, 0xca, 0x18, 
    0xb4, 0xff, 0x51, 0x1c, 0xef, 0x10, 0xb9, 0xf9, 0xb2, 0xd3, 0xea, 0x48, 
    0x50, 0x14, 0xe6, 0x1f, 0x0d, 0x06, 0xfc, 0x43, 0x37, 0xcb, 0xff, 0x3c, 
    0x0a, 0x36, 0xbf, 0x06, 0x01, 0x3e, 0xfb, 0xf7, 0x19, 0x04, 0xad, 0x17, 
    0x3a, 0xce, 0xd6, 0xd7, 0x24, 0x22, 0xad, 0xe9, 0x3d, 0x3f, 0x19, 0x1a, 
    0x26, 0x3b, 0xc5, 0x40, 0xf9, 0x4e, 0xf0, 0x33, 0xd0, 0x24, 0x00, 0xc2, 
    0xdc, 0x3d, 0xea, 0xee, 0x4b, 0xf5, 0x02, 0x14, 0x38, 0x2b, 0xaa, 0x54, 
    0xc0, 0xd5, 0x4e, 0x1d, 0xfd, 0xfe, 0x50, 0xe4, 0x2d, 0x54, 0xe9, 0xb7, 
    0x06, 0x30, 0x37, 0xdb, 0xc4, 0xe9, 0xaa, 0x0e, 0x6a, 0xe5, 0xff, 0xff, 
    0x04, 0x00, 0x00, 0x00, 0x40, 0x00, 0x00, 0x00, 0x24, 0x0e, 0x00, 0x00, 
    0x83, 0x10, 0x00, 0x00, 0x69, 0x11, 0x00, 0x00, 0x0e, 0x0e, 0x00, 0x00, 
    0xad, 0x0e, 0x00, 0x00, 0xe9, 0x13, 0x00, 0x00, 0xd6, 0x1f, 0x00, 0x00, 
    0xcc, 0x13, 0x00, 0x00, 0x80, 0x1f, 0x00, 0x00, 0xed, 0x0e, 0x00, 0x00, 
    0x4b, 0x19, 0x00, 0x00, 0x8d, 0x03, 0x00, 0x00, 0x4f, 0x0f, 0x00, 0x00, 
    0x44, 0x1a, 0x00, 0x00, 0x98, 0x18, 0x00, 0x00, 0xe9, 0x21, 0x00, 0x00, 
    0xb6, 0xe5, 0xff, 0xff, 0x04, 0x00, 0x00, 0x00, 0x00, 0x07, 0x00, 0x00, 
    0xda, 0x2a, 0xe0, 0x3c, 0x2a, 0x15, 0xc3, 0xf0, 0x08, 0x46, 0xb6, 0xc1, 
    0xcf, 0x4b, 0x09, 0xef, 0x46, 0xe1, 0x31, 0xd6, 0xe8, 0xee, 0x4b, 0x04, 
    0x39, 0xce, 0xfd, 0xc2, 0x19, 0xd0, 0xe5, 0x0c, 0x4d, 0xf5, 0x5d, 0xfa, 
    0x35, 0x67, 0x82, 0x70, 0x0f, 0xfb, 0x81, 0xb4, 0xe5, 0xf7, 0x45, 0xc7, 
    0x32, 0x0e, 0x12, 0x0a, 0x47, 0xd0, 0x37, 0xe8, 0x27, 0x46, 0x52, 0x1c, 
    0x3d, 0x26, 0x60, 0x07, 0x1a, 0x30, 0x24, 0x0e, 0x15, 0x0a, 0x18, 0xb6, 
    0x04, 0x02, 0xe2, 0x05, 0xca, 0xbd, 0x09, 0x19, 0x30, 0x07, 0xb4, 0x37, 
    0xe4, 0x43, 0xe8, 0x4c, 0xed, 0x46, 0xf9, 0x2e, 0x03, 0x07, 0x30, 0xd0, 
    0xdc, 0xb8, 0xfd, 0xde, 0xbd, 0xbe, 0x08, 0x1a, 0xd2, 0xe0, 0x2b, 0xc3, 
    0xfb, 0x19, 0xdf, 0xfc, 0xe1, 0xc1, 0x1d, 0xc6, 0x26, 0xd6, 0xcf, 0xdb, 
    0xe0, 0x30, 0x02, 0x30, 0x10, 0x1c, 0x1b, 0x1c, 0x09, 0xec, 0x33, 0x3d, 
    0xca, 0x31, 0xcd, 0x2a, 0x03, 0xe9, 0x34, 0xd0, 0x1a, 0xdd, 0x24, 0xe9, 
    0x70, 0xfe, 0xf1, 0x21, 0x36, 0x67, 0x9b, 0x36, 0xad, 0x66, 0xed, 0x84, 
    0xf1, 0xf4, 0x08, 0xc0, 0x1c, 0xe8, 0xeb, 0x02, 0x4e, 0x0e, 0xcc, 0x70, 
    0xca, 0x58, 0xe9, 0xba, 0x66, 0xed, 0x25, 0x81, 0xb4, 0x49, 0x35, 0xc9, 
    0xcb, 0xea, 0xf9, 0x27, 0xc9, 0x35, 0xc6, 0x0d, 0xd6, 0x01, 0xb9, 0xfd, 
    0x12, 0xc3, 0x2e, 0xdb, 0xca, 0xbc, 0xf5, 0xe9, 0xdb, 0x03, 0xfe, 0x21, 
    0x04, 0xb4, 0xeb, 0x08, 0xb3, 0x25, 0x0b, 0x3e, 0xbd, 0x0a, 0xb5, 0x18, 
    0x3e, 0xf3, 0x04, 0xde, 0xba, 0xf4, 0x2b, 0x33, 0x2d, 0x36, 0xc7, 0xf2, 
    0xbc, 0xe7, 0x17, 0xdf, 0xcd, 0x20, 0xce, 0xbf, 0x2a, 0x10, 0x2c, 0x3c, 
    0x23, 0x29, 0xc3, 0xf5, 0xef, 0x21, 0x11, 0x13, 0xd6, 0xdc, 0xc4, 0xb2, 
    0xee, 0xce, 0x04, 0xc0, 0x36, 0x37, 0xa2, 0x52, 0xbc, 0x91, 0x5e, 0x8d, 
    0x60, 0x12, 0x5c, 0x29, 0x98, 0x52, 0x43, 0x15, 0x69, 0x37, 0x4d, 0x16, 
    0x7f, 0x43, 0x89, 0x47, 0x1a, 0x3c, 0x0c, 0xdb, 0x27, 0x9d, 0xc6, 0x87, 
    0x43, 0xb0, 0x25, 0xc1, 0x07, 0xd8, 0xba, 0x42, 0xbe, 0xf6, 0x13, 0xc6, 
    0x17, 0x18, 0xb6, 0xf3, 0x14, 0xc5, 0x40, 0x0c, 0xb4, 0x04, 0xc6, 0xe3, 
    0xce, 0xfb, 0xc8, 0xf9, 0xec, 0xf7, 0x00, 0x47, 0xf5, 0x44, 0x3b, 0x30, 
    0x4e, 0x31, 0xbf, 0x4a, 0x24, 0xec, 0x13, 0xbc, 0xbc, 0x07, 0x11, 0x0b, 
    0xe3, 0xfb, 0xfd, 0x28, 0xe1, 0x1b, 0xc6, 0x0e, 0x42, 0x0a, 0xed, 0xd9, 
    0xbd, 0x1b, 0x02, 0xfa, 0x1c, 0xca, 0xd3, 0x3d, 0x02, 0x2d, 0xcc, 0x13, 
    0xf2, 0xca, 0x30, 0x40, 0xd1, 0x2a, 0xcc, 0x31, 0x0a, 0x1c, 0x13, 0x26, 
    0x37, 0xef, 0xcd, 0xef, 0xc8, 0x2e, 0xf1, 0xd2, 0x54, 0x08, 0x28, 0xac, 
    0x59, 0x0f, 0x61, 0x0d, 0x7f, 0xf9, 0xb8, 0x12, 0x04, 0xfd, 0xc0, 0xba, 
    0x1b, 0xb8, 0x00, 0xd2, 0x0b, 0x09, 0xc1, 0xf5, 0xdd, 0x25, 0xfc, 0xce, 
    0x26, 0xc9, 0x01, 0xbd, 0xe5, 0x22, 0xf4, 0x22, 0xf3, 0x2c, 0xd1, 0xf6, 
    0xd7, 0x32, 0x42, 0xeb, 0x02, 0x0b, 0xe4, 0xf5, 0x3d, 0xbc, 0xe7, 0xef, 
    0xc1, 0x34, 0x3f, 0x32, 0xf3, 0xc0, 0x01, 0xf3, 0xea, 0x44, 0xe3, 0xdc, 
    0xec, 0x26, 0x1b, 0x3d, 0xce, 0x12, 0x24, 0xf4, 0x08, 0x0e, 0xe7, 0x17, 
    0x26, 0xe4, 0xf6, 0x2f, 0xd2, 0x25, 0x18, 0xcf, 0xf3, 0x2a, 0x2e, 0xca, 
    0xf4, 0xed, 0xd0, 0xe9, 0x16, 0xd2, 0x15, 0xca, 0x0d, 0xeb, 0x26, 0xd6, 
    0xf0, 0x11, 0xe2, 0x19, 0x81, 0xd7, 0xfc, 0xc6, 0xf6, 0x0b, 0x33, 0x4a, 
    0xdf, 0x09, 0x3d, 0x44, 0x1f, 0x10, 0xfd, 0x18, 0x98, 0xe3, 0x28, 0xcb, 
    0x06, 0xce, 0x1a, 0x48, 0xb9, 0x46, 0x09, 0x11, 0x02, 0xf0, 0xfb, 0x03, 
    0x27, 0x17, 0xf2, 0x2e, 0xfd, 0x00, 0x2e, 0xe9, 0xeb, 0xdb, 0x2d, 0xd0, 
    0x1f, 0xda, 0xf9, 0x16, 0x34, 0x01, 0x02, 0x0c, 0xea, 0x2c, 0xe8, 0x06, 
    0x05, 0xef, 0x16, 0x06, 0x1c, 0xe8, 0x25, 0x18, 0xf0, 0x26, 0xd5, 0xe7, 
    0xd9, 0x20, 0x26, 0xd2, 0x28, 0x2d, 0xe1, 0x04, 0x00, 0xd8, 0xd2, 0x28, 
    0x32, 0x24, 0x28, 0xf0, 0x25, 0x36, 0xf0, 0x0f, 0x35, 0xe5, 0xf3, 0xf3, 
    0x10, 0xf2, 0xcc, 0x14, 0xda, 0xfb, 0x22, 0x03, 0xe8, 0xe8, 0x02, 0xeb, 
    0x0f, 0xc9, 0xe2, 0xf9, 0x0c, 0x23, 0x46, 0x2d, 0x2b, 0x61, 0x81, 0x60, 
    0xc4, 0x0c, 0xe7, 0x83, 0x14, 0xfc, 0x3e, 0xb0, 0xdf, 0xfb, 0x41, 0x49, 
    0x54, 0x42, 0xa5, 0x32, 0xcb, 0x09, 0xd5, 0x99, 0x1f, 0xe6, 0x34, 0xe4, 
    0x2f, 0xf5, 0x00, 0x05, 0x2d, 0x09, 0x03, 0xd3, 0xfe, 0xd8, 0x21, 0x0e, 
    0xd0, 0x00, 0x1c, 0xd4, 0x03, 0x0c, 0x29, 0x05, 0xe7, 0x11, 0xea, 0x07, 
    0xfa, 0x05, 0xe4, 0xcd, 0xd6, 0xce, 0x0d, 0x36, 0xcf, 0x30, 0x1a, 0x20, 
    0x0a, 0x08, 0xe3, 0x28, 0x36, 0x28, 0x34, 0xe4, 0xc9, 0x1e, 0xcd, 0x2c, 
    0xf5, 0xcc, 0xca, 0x04, 0xd2, 0xc6, 0xda, 0x20, 0x0f, 0x2f, 0xe2, 0xf3, 
    0x0e, 0xe1, 0x07, 0xe5, 0xcc, 0x14, 0x05, 0xe5, 0x37, 0x18, 0x11, 0xe0, 
    0x2b, 0xcb, 0xda, 0xd5, 0x1a, 0x05, 0xea, 0xff, 0x14, 0xec, 0xcd, 0xe7, 
    0x81, 0xc9, 0x28, 0xf0, 0x41, 0xbb, 0x39, 0x3a, 0xca, 0x00, 0x4d, 0x36, 
    0x49, 0xfc, 0xef, 0x26, 0x1f, 0xe7, 0xb5, 0x1b, 0xef, 0x44, 0xc8, 0xf0, 
    0x28, 0x17, 0x1b, 0xc9, 0x24, 0xeb, 0x05, 0xda, 0xd4, 0x33, 0x23, 0x21, 
    0x31, 0x38, 0xd8, 0x1a, 0x02, 0xc6, 0xd3, 0x03, 0xc7, 0x25, 0x1e, 0x01, 
    0xc9, 0x26, 0xff, 0x2e, 0x3a, 0x22, 0x06, 0x07, 0xc7, 0x35, 0xdf, 0xdb, 
    0xcd, 0x26, 0x1a, 0xdb, 0x19, 0x11, 0x27, 0x00, 0x1a, 0x33, 0xf9, 0xc7, 
    0x10, 0xe9, 0xfe, 0x0b, 0xa8, 0x1b, 0x03, 0x53, 0xc9, 0x44, 0xb6, 0x31, 
    0xd6, 0x2d, 0xdd, 0xdf, 0x1a, 0xe4, 0x21, 0xa9, 0xa7, 0xac, 0xd1, 0x37, 
    0x1b, 0xc5, 0xab, 0x46, 0xc5, 0x0b, 0xd6, 0x29, 0xc1, 0xb7, 0xb4, 0x35, 
    0x23, 0x65, 0xb0, 0x06, 0x84, 0x8e, 0x73, 0xcc, 0x04, 0xf7, 0x66, 0x7e, 
    0x81, 0x41, 0x02, 0x66, 0xd0, 0xe3, 0x25, 0xfe, 0x22, 0xb8, 0xc9, 0xdf, 
    0xb6, 0x1f, 0xa3, 0x4c, 0xbe, 0x0b, 0xf5, 0x4f, 0x12, 0xd8, 0x29, 0x45, 
    0x34, 0x57, 0x31, 0xe4, 0xe9, 0x3c, 0xf1, 0x46, 0xaa, 0xf4, 0x00, 0xc9, 
    0xaf, 0x34, 0xff, 0xf6, 0x3a, 0xe3, 0x4b, 0x2f, 0xda, 0xf2, 0x4b, 0xd5, 
    0x41, 0x3c, 0x45, 0xbe, 0xfc, 0x31, 0xb6, 0xbe, 0xcb, 0x2a, 0x52, 0x3e, 
    0x05, 0xc9, 0x1b, 0x3e, 0xd7, 0x46, 0xe8, 0x19, 0xcb, 0x43, 0x0b, 0xc3, 
    0xc9, 0xee, 0x24, 0x16, 0x0d, 0xf3, 0xe3, 0x05, 0xdb, 0x1e, 0xe1, 0x08, 
    0x07, 0x36, 0x21, 0x2c, 0x14, 0xe1, 0x3b, 0x38, 0x25, 0x1c, 0xff, 0x1a, 
    0x18, 0xce, 0x45, 0x08, 0xe9, 0x3f, 0xeb, 0x4b, 0x89, 0x81, 0x11, 0xa1, 
    0x40, 0xd2, 0x4f, 0x70, 0xe8, 0x2f, 0x23, 0x3d, 0x48, 0x3a, 0x31, 0xe2, 
    0xf9, 0xfb, 0x1a, 0x08, 0x07, 0x58, 0x0c, 0x39, 0xf9, 0x43, 0x6a, 0x1f, 
    0x16, 0x02, 0x24, 0xe8, 0xc1, 0x3a, 0xf6, 0xd8, 0xdd, 0xc5, 0xcc, 0x2f, 
    0x27, 0x22, 0xce, 0xff, 0x0e, 0xc6, 0xda, 0xdf, 0x37, 0x21, 0xf7, 0xc2, 
    0xce, 0x37, 0xef, 0xee, 0xdc, 0xc2, 0xe8, 0xd8, 0x11, 0xdf, 0xe3, 0x37, 
    0xce, 0x05, 0xea, 0xc6, 0x41, 0xd4, 0x24, 0x0b, 0x32, 0x06, 0x2e, 0xc3, 
    0xca, 0x16, 0x2e, 0x2b, 0xf8, 0x24, 0xdf, 0x04, 0x0e, 0x3a, 0x28, 0x06, 
    0x3d, 0xe9, 0x3a, 0x3c, 0xff, 0xc7, 0x21, 0x1b, 0x1c, 0xf3, 0xeb, 0x08, 
    0x2c, 0x08, 0x12, 0x2f, 0xfd, 0x34, 0x28, 0x1c, 0x55, 0x38, 0x5c, 0x21, 
    0x24, 0x26, 0xee, 0x0a, 0xbf, 0x53, 0xe5, 0x04, 0x2c, 0xbf, 0x03, 0x9a, 
    0xed, 0x41, 0xcf, 0x3e, 0x81, 0xda, 0x12, 0xf3, 0x4e, 0xbb, 0xed, 0x79, 
    0xc3, 0x46, 0x48, 0xf9, 0xd9, 0x0a, 0x2c, 0x3a, 0xca, 0xf4, 0xe4, 0x0b, 
    0xdb, 0x20, 0x08, 0x0d, 0x1b, 0x10, 0xfc, 0x38, 0xcb, 0xf5, 0xdf, 0xd5, 
    0xf6, 0xf3, 0x06, 0xca, 0xc8, 0x22, 0xfd, 0x25, 0x26, 0x07, 0xe1, 0x02, 
    0x32, 0x3c, 0xe6, 0xff, 0x33, 0x36, 0x22, 0xcb, 0x26, 0x23, 0xe8, 0x2e, 
    0xeb, 0xff, 0xe5, 0x03, 0x0c, 0x11, 0x31, 0xda, 0x55, 0xfe, 0xd5, 0xe5, 
    0x2a, 0xb7, 0x10, 0xb6, 0x48, 0x26, 0x13, 0xda, 0x10, 0x51, 0x09, 0x01, 
    0xf9, 0xba, 0x49, 0xc8, 0xd2, 0xe6, 0x26, 0x05, 0xb7, 0x47, 0xc8, 0xa9, 
    0x1f, 0xa2, 0xc1, 0xf9, 0xf9, 0xfd, 0x44, 0x36, 0xd0, 0xe9, 0xa3, 0xc3, 
    0x1a, 0x2d, 0x96, 0xb7, 0x5e, 0xfd, 0x1b, 0x2c, 0x7b, 0x2b, 0x95, 0x24, 
    0x86, 0x04, 0x06, 0x81, 0x35, 0xe3, 0x43, 0xdd, 0xc9, 0xa8, 0xdf, 0x00, 
    0x04, 0xab, 0x47, 0x17, 0xbd, 0x28, 0xec, 0x29, 0x42, 0xd6, 0xa9, 0xa8, 
    0xf0, 0x55, 0xfa, 0xf8, 0xb3, 0x3a, 0xe1, 0x16, 0xb0, 0x2e, 0xce, 0xae, 
    0x58, 0xcd, 0xed, 0x39, 0x54, 0xa9, 0x48, 0xa7, 0x3f, 0x33, 0xaa, 0x1d, 
    0x50, 0xe2, 0xaa, 0xb0, 0xb5, 0xcd, 0xea, 0xe7, 0xf7, 0x06, 0xeb, 0x0f, 
    0xe0, 0x21, 0x1e, 0x06, 0x17, 0xd4, 0xf6, 0xce, 0x01, 0xed, 0xd7, 0x1c, 
    0xf3, 0xe3, 0xf4, 0xcd, 0xf0, 0xef, 0x1b, 0x1a, 0xef, 0x26, 0x01, 0xf5, 
    0x24, 0xeb, 0x28, 0x32, 0x19, 0xf0, 0xcf, 0x01, 0x8b, 0xb8, 0x37, 0xed, 
    0xe8, 0x00, 0xeb, 0x33, 0xea, 0x40, 0x19, 0x37, 0x14, 0x2b, 0xfb, 0x1b, 
    0x81, 0xcd, 0x3a, 0xc0, 0x43, 0xbc, 0x26, 0x36, 0x00, 0x1d, 0xf5, 0x0c, 
    0x04, 0xdc, 0xd3, 0x1d, 0x20, 0x1d, 0xde, 0x1c, 0x27, 0x15, 0xf6, 0x29, 
    0x15, 0x28, 0x10, 0x04, 0x0a, 0x1c, 0x02, 0x20, 0xdd, 0xe9, 0x30, 0xd3, 
    0x33, 0xd6, 0x13, 0xdf, 0xf3, 0x0d, 0xdf, 0x2f, 0xfe, 0x14, 0xd6, 0x23, 
    0x02, 0x26, 0x0e, 0x1c, 0x2b, 0x09, 0xdc, 0xcd, 0xe5, 0xec, 0x28, 0x1c, 
    0xd6, 0x00, 0x09, 0x29, 0xea, 0xeb, 0x0d, 0x0b, 0xc2, 0x33, 0xd5, 0xdb, 
    0xe2, 0xdd, 0x18, 0xe0, 0x3f, 0xd6, 0xd4, 0x3c, 0x03, 0x35, 0xe7, 0xea, 
    0x26, 0xe8, 0x3a, 0xe0, 0xeb, 0xd5, 0xe2, 0xfb, 0x33, 0x25, 0xf1, 0x44, 
    0x81, 0xbc, 0x55, 0xa0, 0x30, 0xd7, 0xea, 0x1a, 0x05, 0x33, 0xe0, 0x4e, 
    0x22, 0x45, 0x13, 0x0a, 0x4c, 0x3c, 0x3c, 0xdc, 0x00, 0x04, 0xf5, 0x46, 
    0x10, 0x13, 0x5b, 0xfd, 0xcb, 0xff, 0x38, 0xe6, 0xcd, 0x3a, 0xd1, 0x1a, 
    0x02, 0xd5, 0xe1, 0xe1, 0xc9, 0x3a, 0x38, 0x30, 0xd6, 0x14, 0x3d, 0x3c, 
    0x07, 0x3e, 0x17, 0xec, 0x1c, 0x20, 0x10, 0xc0, 0xf1, 0x0a, 0xe4, 0xcd, 
    0xd3, 0x21, 0xf9, 0xea, 0x29, 0x12, 0x3e, 0xf1, 0x34, 0xfa, 0xdd, 0x17, 
    0x37, 0x12, 0xea, 0xff, 0xf5, 0x02, 0x3d, 0x6f, 0x11, 0x76, 0xf1, 0x4f, 
    0x4c, 0xa5, 0x8f, 0xb4, 0x61, 0xb2, 0xde, 0xa6, 0x35, 0xaa, 0xb7, 0xf5, 
    0xa8, 0x09, 0xee, 0xe4, 0xb3, 0x2e, 0x47, 0x9b, 0xbf, 0xd2, 0x89, 0xd2, 
    0x00, 0x02, 0xc8, 0x49, 0x34, 0xa1, 0x81, 0xe8, 0xd8, 0x91, 0xba, 0x26, 
    0x30, 0x35, 0xe7, 0xc7, 0xbd, 0x8b, 0xf1, 0xb0, 0x3a, 0xdf, 0x95, 0xb2, 
    0x86, 0x81, 0xe5, 0x0e, 0x4f, 0x1e, 0xf3, 0x41, 0x1c, 0x09, 0x77, 0xd5, 
    0x3e, 0x30, 0x9f, 0x96, 0x93, 0x66, 0x66, 0xd2, 0x70, 0xa0, 0x03, 0x8d, 
    0x8d, 0xd1, 0x37, 0x8d, 0x37, 0x03, 0xcb, 0xe7, 0x9b, 0x4e, 0x89, 0x28, 
    0xc0, 0xbd, 0xa5, 0x69, 0x4c, 0xec, 0xf9, 0xd6, 0x73, 0xcb, 0x0b, 0xf4, 
    0x75, 0x3c, 0x51, 0xd6, 0x33, 0x76, 0xb8, 0xc2, 0xd6, 0x1b, 0x39, 0x1c, 
    0x1f, 0xd6, 0xdc, 0x0c, 0x2f, 0xe7, 0x0e, 0x19, 0xc6, 0xf4, 0x2f, 0xe1, 
    0x32, 0x28, 0x33, 0xd7, 0x34, 0x39, 0x3c, 0xea, 0xd4, 0x2a, 0xfa, 0xc4, 
    0x07, 0xcb, 0xe8, 0x31, 0x04, 0xfb, 0xe1, 0x4e, 0xbd, 0xa8, 0x0a, 0xcd, 
    0x3e, 0xfd, 0x3d, 0x7f, 0xd3, 0x21, 0x0e, 0x52, 0x37, 0xe5, 0x1b, 0x3b, 
    0x62, 0x4a, 0xab, 0x0b, 0xf8, 0xeb, 0xc6, 0xda, 0x3c, 0x24, 0xe4, 0xe3, 
    0x17, 0x00, 0xea, 0xc7, 0x13, 0x02, 0x29, 0x02, 0x05, 0x0c, 0xfb, 0x15, 
    0xd5, 0xd5, 0xc4, 0x39, 0x1a, 0x39, 0x1d, 0xcf, 0xd8, 0x26, 0x14, 0x2a, 
    0xce, 0xfd, 0xe7, 0xd5, 0xf9, 0xf8, 0xcc, 0xe6, 0x31, 0xd0, 0xc5, 0xc7, 
    0xcb, 0x1c, 0xe2, 0xdc, 0x0a, 0x09, 0x25, 0x1e, 0xd7, 0x0e, 0x2d, 0xd8, 
    0x2b, 0x2a, 0xff, 0x05, 0xcd, 0x21, 0xcb, 0x0c, 0x1a, 0xef, 0xef, 0x05, 
    0x03, 0x16, 0x16, 0xec, 0x25, 0x00, 0x17, 0x19, 0xf6, 0xcf, 0x16, 0x18, 
    0xf5, 0xe1, 0x32, 0xda, 0xd8, 0xfb, 0x1d, 0x06, 0xeb, 0x32, 0xff, 0x35, 
    0x86, 0xd2, 0x06, 0xbb, 0x30, 0xf7, 0x02, 0x7f, 0xca, 0x2b, 0x35, 0x15, 
    0x0f, 0x1c, 0xd0, 0x32, 0x81, 0xe0, 0x49, 0xe2, 0x48, 0xb0, 0x08, 0x37, 
    0xbc, 0x04, 0x32, 0x37, 0xf9, 0xfc, 0x04, 0xde, 0x22, 0xf9, 0x1b, 0x00, 
    0xd7, 0xfe, 0xe2, 0x10, 0xfe, 0xd9, 0x34, 0xf2, 0x08, 0xd2, 0x30, 0x1a, 
    0x22, 0x1f, 0x1c, 0x04, 0xe4, 0xce, 0x19, 0x14, 0x0e, 0x27, 0x02, 0x28, 
    0x0b, 0x12, 0x32, 0x1c, 0x09, 0xec, 0xe5, 0xdf, 0x1c, 0x2b, 0x19, 0x24, 
    0xfc, 0x17, 0x11, 0xcb, 0xc2, 0xec, 0xff, 0xff, 0x04, 0x00, 0x00, 0x00, 
    0x40, 0x00, 0x00, 0x00, 0x74, 0x03, 0x00, 0x00, 0xa2, 0x02, 0x00, 0x00, 
    0xda, 0x00, 0x00, 0x00, 0x57, 0x02, 0x00, 0x00, 0x05, 0x02, 0x00, 0x00, 
    0x0e, 0x01, 0x00, 0x00, 0xf9, 0x01, 0x00, 0x00, 0xf1, 0x01, 0x00, 0x00, 
    0xd8, 0x02, 0x00, 0x00, 0x67, 0x01, 0x00, 0x00, 0x70, 0x03, 0x00, 0x00, 
    0x11, 0x02, 0x00, 0x00, 0xc0, 0x00, 0x00, 0x00, 0xc7, 0xfe, 0xff, 0xff, 
    0x09, 0x00, 0x00, 0x00, 0xb9, 0x01, 0x00, 0x00, 0x0e, 0xed, 0xff, 0xff, 
    0x04, 0x00, 0x00, 0x00, 0x00, 0x0e, 0x00, 0x00, 0x40, 0xde, 0xe8, 0x29, 
    0xbe, 0x2e, 0x33, 0xbc, 0xfb, 0xd9, 0xf5, 0xe4, 0x00, 0xff, 0xdb, 0xed, 
    0xcb, 0xf9, 0xe8, 0x00, 0xc6, 0xe9, 0xc4, 0x3b, 0xe4, 0x28, 0x11, 0xc7, 
    0xec, 0xeb, 0xc8, 0x1b, 0x29, 0x67, 0xc6, 0x49, 0x22, 0x62, 0xf7, 0xde, 
    0xb8, 0xe5, 0x81, 0xdd, 0x09, 0x19, 0xfc, 0x1b, 0xe4, 0xe7, 0xd8, 0x3a, 
    0xf2, 0xfd, 0xc6, 0x15, 0xd0, 0xdf, 0xe7, 0xe5, 0xf5, 0x1f, 0x1f, 0xce, 
    0x96, 0xe1, 0x39, 0x11, 0x2a, 0x37, 0x29, 0x3a, 0x09, 0x03, 0x0c, 0xfd, 
    0x12, 0xf3, 0x1e, 0xfc, 0xcb, 0xc9, 0xf1, 0xf5, 0xdf, 0xcc, 0xf7, 0xca, 
    0xcf, 0x0d, 0xd0, 0x04, 0xce, 0x1c, 0x2d, 0x18, 0x0d, 0x0e, 0xcc, 0xd1, 
    0x10, 0x1b, 0x3c, 0x1f, 0x2c, 0x0e, 0x09, 0xe4, 0xfc, 0x05, 0x01, 0x23, 
    0x29, 0xda, 0xc7, 0xcf, 0x2b, 0xe1, 0xf4, 0xb5, 0xf2, 0x6b, 0xd5, 0x62, 
    0x11, 0x35, 0xdb, 0x49, 0x60, 0x01, 0xff, 0xe5, 0x22, 0xe9, 0xd5, 0xd5, 
    0xec, 0x42, 0xf9, 0x0f, 0xf9, 0x0c, 0xd2, 0x50, 0x4d, 0xb3, 0xee, 0x99, 
    0x5f, 0x81, 0x42, 0x5b, 0x60, 0x19, 0xec, 0x66, 0x2b, 0x40, 0x55, 0x5a, 
    0xdf, 0xb8, 0x0d, 0xcf, 0x3e, 0xcf, 0x1f, 0x5a, 0x21, 0x01, 0xbe, 0x57, 
    0x69, 0xfd, 0x17, 0x43, 0x9d, 0x83, 0x47, 0xfa, 0x42, 0x9b, 0xe3, 0x44, 
    0x22, 0x81, 0xc7, 0xe6, 0x66, 0x2f, 0xfc, 0x05, 0xaa, 0x8a, 0xf7, 0xed, 
    0xf2, 0xe9, 0xd6, 0x1d, 0x52, 0xd3, 0xe5, 0x10, 0x2e, 0x3b, 0x0b, 0x68, 
    0xfa, 0xc4, 0x23, 0xcc, 0xd1, 0xf5, 0x46, 0xf5, 0x4a, 0x02, 0xf4, 0x42, 
    0xc4, 0xba, 0xca, 0x13, 0x3a, 0xc5, 0xd1, 0xc7, 0x28, 0xd8, 0xfc, 0xb7, 
    0x43, 0x57, 0x0d, 0x32, 0xf7, 0xd8, 0xb3, 0x01, 0x14, 0x1c, 0xf2, 0xec, 
    0x3a, 0xe4, 0xe3, 0xd3, 0x01, 0x47, 0xe8, 0x30, 0xf9, 0x1b, 0xd7, 0xfc, 
    0x9e, 0xa8, 0x2a, 0xd2, 0xf9, 0xed, 0x0b, 0x00, 0xee, 0xf2, 0xa4, 0xce, 
    0x27, 0x28, 0x3e, 0x11, 0xc5, 0x01, 0x2c, 0xf3, 0x39, 0xf0, 0x3f, 0x05, 
    0xe8, 0x09, 0xd8, 0x35, 0x20, 0xc9, 0xf6, 0xf2, 0x02, 0xa7, 0xf8, 0x9d, 
    0xdb, 0xd1, 0xd9, 0x62, 0x13, 0xb0, 0x01, 0x4c, 0xdd, 0x2d, 0xfe, 0x45, 
    0xdd, 0xb2, 0xfc, 0xb2, 0xc6, 0xc5, 0x01, 0x81, 0x40, 0xcf, 0xea, 0x0c, 
    0x0a, 0x1a, 0x0e, 0x3d, 0xfd, 0x16, 0xee, 0xcd, 0xe4, 0xf1, 0x17, 0x2e, 
    0x02, 0x23, 0xf7, 0x01, 0xfd, 0x0c, 0xf7, 0xcb, 0x34, 0xed, 0xf6, 0x3a, 
    0xd9, 0xf7, 0xff, 0x05, 0x00, 0x93, 0x1a, 0xdf, 0x50, 0xe1, 0x59, 0x97, 
    0x45, 0x06, 0x6c, 0x7f, 0x17, 0x2d, 0x5f, 0xd9, 0x41, 0x26, 0x38, 0x03, 
    0x3c, 0xbd, 0x31, 0x11, 0x5c, 0x56, 0xfa, 0x0e, 0xf4, 0xfa, 0xc1, 0x9d, 
    0x11, 0xcd, 0x7d, 0xba, 0xf2, 0xf4, 0x0b, 0x9e, 0xec, 0x70, 0x2c, 0x49, 
    0xd0, 0x59, 0xd0, 0x1a, 0x32, 0xf6, 0x67, 0x01, 0xfd, 0x16, 0xda, 0xab, 
    0x02, 0x07, 0xc2, 0x6e, 0x2b, 0x14, 0x9d, 0x00, 0xe8, 0x01, 0x2d, 0x90, 
    0xe4, 0xd5, 0xef, 0x85, 0x6e, 0x27, 0xf4, 0x09, 0x02, 0x73, 0xea, 0xb6, 
    0xc9, 0x18, 0xed, 0xf8, 0xb8, 0x19, 0xed, 0xf8, 0x13, 0x06, 0xb1, 0xb6, 
    0x17, 0xce, 0x3e, 0xc1, 0xe8, 0xfa, 0xbc, 0xc8, 0x52, 0x2e, 0x4d, 0x42, 
    0x43, 0xdb, 0xd2, 0xd5, 0xdb, 0x8b, 0xfa, 0xb2, 0x37, 0x07, 0x15, 0x1c, 
    0x21, 0x06, 0x42, 0x3f, 0x5a, 0xf2, 0x22, 0xf8, 0xf0, 0xf6, 0x4f, 0x2a, 
    0x73, 0xe9, 0xfe, 0xd7, 0x66, 0xec, 0x5a, 0x04, 0x4b, 0x52, 0x35, 0x06, 
    0xc3, 0x09, 0x5b, 0x04, 0x23, 0x81, 0x55, 0xcd, 0x50, 0x15, 0x3c, 0xdd, 
    0x4b, 0x47, 0x37, 0x0b, 0xc4, 0x2c, 0x2a, 0xd1, 0xf6, 0x33, 0x27, 0xed, 
    0x47, 0x01, 0x11, 0xb3, 0x0f, 0x48, 0xbd, 0x6e, 0x17, 0x19, 0xf1, 0xff, 
    0xcf, 0x71, 0xba, 0xd7, 0x97, 0x34, 0xa5, 0xbc, 0x70, 0x10, 0xc0, 0x0b, 
    0x11, 0x56, 0x8b, 0x9f, 0xc4, 0x54, 0x21, 0x09, 0xd9, 0xb4, 0x8b, 0xfd, 
    0x26, 0xc5, 0xcd, 0xe1, 0xcb, 0x2e, 0xe4, 0x1b, 0x07, 0xdf, 0x00, 0x3f, 
    0xd8, 0xc0, 0xd3, 0x02, 0x15, 0xdc, 0xc5, 0xe5, 0x08, 0xcf, 0xcb, 0x1a, 
    0x29, 0x4c, 0x14, 0x07, 0x0f, 0x07, 0xda, 0x21, 0xe9, 0x33, 0xdf, 0x18, 
    0xf4, 0x43, 0xd8, 0x03, 0xcf, 0xde, 0xf4, 0x00, 0x03, 0xf7, 0xa0, 0xeb, 
    0xf2, 0xdf, 0x33, 0xd6, 0xf2, 0x33, 0x01, 0x32, 0x12, 0xdc, 0xe6, 0xf0, 
    0x0d, 0x1a, 0x28, 0x26, 0xf9, 0xc3, 0xe6, 0xee, 0xf9, 0x7f, 0x1f, 0xe1, 
    0x1d, 0xde, 0xa8, 0xf2, 0x0b, 0x19, 0x01, 0xd6, 0xbf, 0x5d, 0xfd, 0xed, 
    0xd5, 0xad, 0xd0, 0xf5, 0xf7, 0x1d, 0xf1, 0xc2, 0xe1, 0x26, 0xd2, 0xf3, 
    0x77, 0xf6, 0xdf, 0x09, 0xf1, 0xe0, 0x0c, 0xf3, 0x06, 0xa2, 0xfe, 0xf1, 
    0xdf, 0xee, 0xcd, 0xc6, 0xe5, 0xe7, 0x25, 0x1d, 0x07, 0x0d, 0xd9, 0x2c, 
    0xea, 0xe3, 0xe4, 0x24, 0xd0, 0xf7, 0x2e, 0x09, 0x0e, 0xf7, 0x4c, 0x43, 
    0x3b, 0xea, 0x34, 0x36, 0x01, 0xe1, 0x3a, 0xde, 0x0b, 0xe2, 0x72, 0x0e, 
    0x2d, 0x03, 0x22, 0x13, 0xd1, 0x4b, 0x35, 0xe6, 0x52, 0x93, 0x49, 0xe1, 
    0x2b, 0x35, 0x5b, 0xe2, 0x1c, 0x29, 0x22, 0xfd, 0x0b, 0x3a, 0xf1, 0x13, 
    0xff, 0x52, 0x18, 0x4d, 0x2b, 0xc5, 0xf8, 0xed, 0x40, 0xf9, 0xc9, 0x0e, 
    0xda, 0xba, 0xec, 0xd7, 0x09, 0xe3, 0xdb, 0xce, 0xca, 0xfe, 0xcd, 0xb7, 
    0xe1, 0x1c, 0x53, 0x11, 0x01, 0x0e, 0x66, 0x46, 0x58, 0xd8, 0x33, 0x68, 
    0x01, 0x28, 0x75, 0x34, 0xd4, 0xd1, 0xf4, 0xd9, 0xc3, 0xfa, 0x0c, 0xcf, 
    0xe0, 0xd3, 0x28, 0x14, 0x7f, 0xf6, 0x23, 0x43, 0x2d, 0x07, 0x05, 0xe8, 
    0x46, 0x1e, 0xcc, 0x29, 0xde, 0x2d, 0xee, 0x08, 0xfd, 0x01, 0xba, 0xf1, 
    0xc9, 0x34, 0xf7, 0x00, 0xfa, 0x0c, 0x16, 0x18, 0xba, 0x4b, 0xe8, 0x37, 
    0xce, 0x27, 0x27, 0x68, 0x5f, 0x13, 0xb0, 0x3f, 0x50, 0xd9, 0x07, 0x0f, 
    0x36, 0x79, 0x17, 0xeb, 0x06, 0x36, 0x01, 0x2e, 0xf9, 0x23, 0x65, 0x28, 
    0xce, 0xe7, 0xda, 0x29, 0x99, 0x3b, 0x4b, 0x18, 0xdc, 0x0d, 0xca, 0xf5, 
    0x1a, 0x2b, 0x7f, 0x77, 0xf2, 0x44, 0x2e, 0x42, 0x69, 0xcb, 0xe8, 0x13, 
    0x1b, 0x2c, 0xfe, 0xb8, 0x22, 0x14, 0x30, 0x4f, 0x21, 0x3f, 0x6f, 0x41, 
    0xa4, 0x26, 0xd1, 0x69, 0xef, 0x3f, 0xd6, 0x4d, 0xf6, 0xc1, 0xd3, 0x20, 
    0x09, 0x1a, 0xa6, 0xe8, 0x94, 0x18, 0xd5, 0xc0, 0xb3, 0x50, 0x99, 0x9e, 
    0x21, 0x06, 0xe8, 0x11, 0xd6, 0xd8, 0x55, 0xbc, 0x1e, 0xf9, 0xdc, 0x46, 
    0xcd, 0x21, 0xad, 0xd5, 0xe4, 0x5c, 0x0a, 0xec, 0xd8, 0x9f, 0xe4, 0x44, 
    0xcf, 0xac, 0x06, 0xcf, 0xe5, 0xe0, 0xf3, 0xc9, 0x28, 0x3b, 0x7f, 0x13, 
    0x28, 0x47, 0x44, 0x00, 0x17, 0x04, 0x60, 0xde, 0x2d, 0xbe, 0x41, 0x25, 
    0xee, 0x43, 0xea, 0xfc, 0xf6, 0x56, 0xf1, 0xf5, 0x2c, 0xbf, 0x1c, 0xfc, 
    0x4a, 0xd9, 0xf4, 0xe4, 0xc3, 0xc3, 0x1f, 0xeb, 0xe4, 0x7d, 0x09, 0x0e, 
    0xf8, 0xdf, 0xc8, 0x04, 0xfb, 0x1e, 0x13, 0xca, 0x1f, 0x2c, 0xaa, 0x4e, 
    0x05, 0x5d, 0xf4, 0xb0, 0xf4, 0x43, 0xf6, 0xcb, 0x98, 0x14, 0xce, 0x04, 
    0x3a, 0x3d, 0xda, 0x54, 0xf5, 0xa3, 0xfe, 0xdb, 0x14, 0xaf, 0xd6, 0x1a, 
    0xdb, 0x31, 0xc3, 0x2d, 0xdf, 0x1b, 0xf8, 0xf4, 0xd9, 0x06, 0x11, 0x33, 
    0xe7, 0xf5, 0x49, 0x25, 0xdf, 0xd8, 0xfa, 0xec, 0xf6, 0x32, 0x81, 0xfc, 
    0x07, 0x2f, 0xca, 0xf9, 0xe9, 0xd8, 0x1a, 0xf4, 0xf8, 0xe9, 0xe0, 0x14, 
    0xe8, 0x08, 0x07, 0x00, 0x24, 0x4e, 0x0a, 0xcb, 0xfa, 0x24, 0x15, 0x15, 
    0xe7, 0x23, 0xc5, 0x08, 0xf1, 0x3e, 0x2b, 0x32, 0xf9, 0x38, 0xfc, 0x15, 
    0x2b, 0xd8, 0x31, 0x07, 0x01, 0xf4, 0x25, 0x28, 0xe5, 0x29, 0x0d, 0x2b, 
    0xf8, 0xef, 0x1d, 0x21, 0x3e, 0xc6, 0x18, 0xfe, 0x07, 0x0d, 0x22, 0x16, 
    0x07, 0x3e, 0xfe, 0x25, 0x14, 0x25, 0x0d, 0x1a, 0x2a, 0x06, 0x12, 0xd6, 
    0x06, 0xf6, 0xfe, 0x13, 0x1c, 0x10, 0x18, 0x17, 0x1a, 0xe9, 0xfa, 0x16, 
    0x1d, 0x38, 0xf6, 0xd6, 0xfe, 0xdf, 0x15, 0x25, 0x2b, 0x17, 0xd7, 0x07, 
    0xde, 0xfd, 0x11, 0xd7, 0xff, 0x0e, 0x28, 0x1d, 0xe1, 0xd7, 0x0c, 0x24, 
    0x12, 0x04, 0xcb, 0xa5, 0x23, 0xad, 0xfd, 0x08, 0x48, 0x00, 0xd7, 0x28, 
    0x48, 0xd0, 0xbb, 0x3f, 0x0f, 0xe3, 0xd8, 0xed, 0x44, 0xdc, 0xa4, 0xd4, 
    0x50, 0x49, 0xec, 0xd3, 0x1a, 0xd2, 0xe7, 0x07, 0xfe, 0xb0, 0x00, 0x10, 
    0x1f, 0xb4, 0xf2, 0x08, 0x4c, 0xfc, 0xe0, 0x5b, 0x35, 0x35, 0xe0, 0x5c, 
    0xe8, 0xcb, 0xe6, 0xdf, 0x36, 0xbc, 0x10, 0x29, 0x08, 0x15, 0x1e, 0x4e, 
    0x44, 0x3a, 0x54, 0x25, 0xcf, 0xdf, 0x67, 0xec, 0x6a, 0xbf, 0x11, 0x3c, 
    0x2e, 0xdb, 0xbe, 0x4c, 0xdc, 0xba, 0x3e, 0x17, 0xb2, 0xdf, 0x25, 0x9c, 
    0x0f, 0xc5, 0xdd, 0x81, 0xe8, 0xa6, 0xb8, 0xf9, 0xb2, 0x3c, 0xa9, 0x4b, 
    0x34, 0x24, 0x09, 0x11, 0xe3, 0xf7, 0xd9, 0xce, 0x3c, 0x1b, 0xd0, 0x2d, 
    0xc2, 0x41, 0xe1, 0xc8, 0x78, 0xbf, 0x96, 0xa5, 0xf4, 0xf3, 0x93, 0x03, 
    0x1b, 0x3e, 0x2a, 0x52, 0xe4, 0xb9, 0x99, 0x3d, 0xd9, 0x06, 0x17, 0x19, 
    0x8b, 0x1e, 0x16, 0x61, 0xda, 0xe1, 0x21, 0xd1, 0x15, 0x09, 0xcc, 0x8c, 
    0xb9, 0xa0, 0xe6, 0xfd, 0x09, 0xe8, 0x29, 0x3f, 0x41, 0x96, 0xf2, 0x5e, 
    0x5e, 0xe0, 0x59, 0x29, 0xfe, 0xe7, 0xf0, 0x7c, 0x1c, 0xfd, 0xc9, 0xa0, 
    0xef, 0xf1, 0xe4, 0x46, 0x2b, 0xeb, 0xd5, 0x15, 0x16, 0x25, 0xba, 0x15, 
    0x89, 0x40, 0x9a, 0x8a, 0xbd, 0x64, 0xd7, 0x05, 0x87, 0x31, 0x81, 0x98, 
    0x4b, 0xf6, 0x14, 0x4a, 0x0a, 0x21, 0xea, 0x32, 0xed, 0xf3, 0xe7, 0x12, 
    0xed, 0x4b, 0xf8, 0xcb, 0x0b, 0x0c, 0xb1, 0xf2, 0x49, 0x49, 0x36, 0xb0, 
    0x00, 0x46, 0x07, 0x19, 0xe1, 0xf8, 0xef, 0xe4, 0xcd, 0xa8, 0xa4, 0x9b, 
    0x00, 0x97, 0x13, 0xda, 0xa7, 0xe7, 0xc4, 0xa6, 0xf6, 0x29, 0xec, 0xe8, 
    0x70, 0xf8, 0x93, 0xdb, 0x04, 0xf0, 0x98, 0xbb, 0x1f, 0x1b, 0xd5, 0x58, 
    0x32, 0x31, 0xbb, 0xd1, 0x38, 0xba, 0xb5, 0xfc, 0xe8, 0xfb, 0xb3, 0xe5, 
    0x5b, 0x42, 0xce, 0x2b, 0x05, 0x24, 0xba, 0xdd, 0x3d, 0xb2, 0x07, 0xc0, 
    0x6b, 0xaf, 0x25, 0x40, 0xec, 0xdc, 0x16, 0x5c, 0x2a, 0x06, 0x2d, 0x10, 
    0x0b, 0xcc, 0xe4, 0xbe, 0x2d, 0xf4, 0x06, 0x2b, 0x51, 0xc5, 0x19, 0x6a, 
    0x2f, 0x0d, 0x7f, 0x03, 0xb0, 0xe4, 0x27, 0xc0, 0x0b, 0xa4, 0x49, 0x61, 
    0x0a, 0xab, 0x01, 0x3b, 0x24, 0xf7, 0x37, 0xf9, 0x3e, 0xc3, 0xe7, 0x42, 
    0xe0, 0x48, 0x3d, 0x49, 0xcf, 0x2e, 0xdb, 0xf2, 0x43, 0x4c, 0x26, 0xfd, 
    0x04, 0xea, 0xa2, 0xc3, 0x2e, 0xdc, 0xa4, 0xf5, 0x21, 0x0e, 0x0f, 0x0e, 
    0x0f, 0xbf, 0xbf, 0xf9, 0x2f, 0xbb, 0xe9, 0xf8, 0x09, 0xd1, 0xe4, 0x31, 
    0x0e, 0x2e, 0xb5, 0xa9, 0x0d, 0x43, 0xae, 0x91, 0xf8, 0x01, 0x1d, 0x20, 
    0x0d, 0x29, 0x61, 0x5a, 0x2b, 0xe8, 0xfc, 0x16, 0xfa, 0x0b, 0x46, 0xdb, 
    0x1f, 0x02, 0xa0, 0xe2, 0xf4, 0xbd, 0xb3, 0x39, 0x7f, 0x08, 0xfa, 0x5f, 
    0x0b, 0xc5, 0xf6, 0x1a, 0x2e, 0x1e, 0x28, 0xc7, 0x63, 0x1a, 0x0c, 0x3b, 
    0xc8, 0xcb, 0x06, 0xff, 0x30, 0x1e, 0x37, 0x09, 0xd6, 0xce, 0x48, 0x11, 
    0xef, 0xc8, 0x6e, 0x04, 0x46, 0xcd, 0x4f, 0x3a, 0x2b, 0x00, 0xf6, 0xd8, 
    0x30, 0xe3, 0xdf, 0x0a, 0xe8, 0x02, 0xb4, 0xc4, 0x06, 0xfe, 0xbf, 0xb6, 
    0x22, 0x09, 0xf1, 0xd1, 0xa9, 0xba, 0x05, 0xf9, 0xe2, 0x04, 0xbc, 0x21, 
    0x8c, 0xbc, 0xcb, 0xb6, 0xf6, 0xf9, 0xe3, 0xd3, 0x65, 0x00, 0xf5, 0xbb, 
    0x1a, 0xb3, 0xb5, 0xe1, 0x2d, 0xff, 0xdf, 0x09, 0x35, 0x11, 0xf4, 0x07, 
    0x6f, 0xf1, 0xc5, 0xb6, 0x21, 0xdd, 0xb0, 0xdb, 0x1d, 0xc8, 0xfc, 0x2a, 
    0x2b, 0x41, 0xc8, 0xfc, 0xf2, 0xad, 0x42, 0x9a, 0x30, 0xb8, 0x5a, 0x45, 
    0x15, 0xd8, 0xc5, 0xef, 0x51, 0xbd, 0x33, 0x5e, 0xba, 0x08, 0x52, 0xf3, 
    0xf2, 0xcf, 0x20, 0x53, 0x34, 0xc9, 0xf5, 0x65, 0xe2, 0x05, 0x62, 0xe2, 
    0xa9, 0x81, 0x4c, 0xee, 0x28, 0xc1, 0xdb, 0xfb, 0x38, 0xaa, 0xff, 0x4e, 
    0x13, 0xb5, 0x30, 0xe7, 0x06, 0x0b, 0xdd, 0xbd, 0xcd, 0xed, 0x3b, 0xba, 
    0xe0, 0x3d, 0x33, 0x0f, 0xc5, 0xc7, 0xdb, 0xdc, 0x19, 0xd7, 0x6f, 0x67, 
    0xda, 0x32, 0x74, 0xc3, 0x76, 0xfa, 0x54, 0x25, 0x5b, 0xb6, 0x74, 0x13, 
    0x05, 0xc1, 0x1b, 0xf7, 0xe0, 0x1d, 0x7f, 0x12, 0x08, 0xc6, 0xfc, 0x07, 
    0x4d, 0x22, 0xde, 0x51, 0x62, 0xb8, 0xd9, 0xec, 0xee, 0xa9, 0xcf, 0x08, 
    0x68, 0x7e, 0xbe, 0x32, 0x31, 0xf6, 0xeb, 0xe9, 0xf9, 0x4b, 0x1e, 0xf6, 
    0x43, 0x2d, 0x1d, 0x53, 0x4e, 0x36, 0xfd, 0x42, 0xf2, 0x45, 0x03, 0x24, 
    0xef, 0xaa, 0x3f, 0xf2, 0x66, 0xd5, 0x63, 0x4c, 0xf6, 0xcf, 0xee, 0x6c, 
    0x2f, 0xf9, 0x7e, 0x55, 0x3a, 0xcb, 0x49, 0x18, 0x62, 0xf1, 0xfd, 0x61, 
    0x3b, 0x27, 0x15, 0x3b, 0x46, 0x24, 0x76, 0x2d, 0x4a, 0xed, 0xe8, 0x4a, 
    0xe9, 0xbc, 0x35, 0xc1, 0x02, 0x15, 0x40, 0x27, 0x1a, 0xed, 0x28, 0xe9, 
    0x4a, 0xdc, 0x8c, 0x8b, 0x7d, 0xa7, 0x8c, 0xd4, 0x3e, 0x01, 0xfb, 0x21, 
    0x58, 0xbd, 0x95, 0xf0, 0x28, 0xae, 0x87, 0xa8, 0x43, 0xa7, 0xba, 0x4d, 
    0x45, 0x5e, 0xcc, 0xc8, 0x4a, 0x24, 0xf2, 0xe1, 0x03, 0x18, 0x5f, 0xd7, 
    0x79, 0xe4, 0x73, 0x0d, 0x65, 0x06, 0xbb, 0x69, 0x6c, 0x53, 0x03, 0x3e, 
    0x52, 0xf0, 0xb6, 0x90, 0x64, 0xb0, 0x37, 0x06, 0x3e, 0xe9, 0xd3, 0x66, 
    0x27, 0xbc, 0xde, 0x71, 0x31, 0x34, 0x7f, 0xd2, 0x24, 0x19, 0x14, 0x0a, 
    0x54, 0xd1, 0x18, 0xe7, 0x54, 0x1f, 0x7b, 0xe0, 0xff, 0xb7, 0xf7, 0xac, 
    0xf0, 0xd9, 0x7d, 0xfd, 0xe9, 0xcc, 0x2c, 0x43, 0xd3, 0xc2, 0x5c, 0xe4, 
    0x40, 0xd8, 0xc0, 0xa7, 0xcd, 0x23, 0x05, 0xe4, 0xce, 0x08, 0xc2, 0x55, 
    0xc4, 0xbd, 0xf4, 0xc2, 0x2b, 0x07, 0x4b, 0xe0, 0x0f, 0xe2, 0x3e, 0x39, 
    0x7f, 0x8b, 0x6b, 0xe1, 0x59, 0xf4, 0x55, 0x9b, 0x16, 0x0a, 0x47, 0x2d, 
    0xfc, 0x47, 0x37, 0xdf, 0x3c, 0xfc, 0x12, 0x05, 0x2a, 0xbb, 0xf0, 0xa1, 
    0x11, 0xf7, 0x99, 0x27, 0xd4, 0x13, 0xc0, 0xe0, 0xb3, 0xe1, 0x12, 0x9b, 
    0xb5, 0x42, 0xa4, 0xd5, 0xfa, 0xff, 0x99, 0x35, 0x04, 0xde, 0xc4, 0xa6, 
    0xbb, 0x3d, 0x10, 0x3b, 0xaa, 0x43, 0x9d, 0xb8, 0x0a, 0x4e, 0xc6, 0x6e, 
    0x0d, 0xe9, 0xe6, 0xe7, 0xfe, 0x57, 0x1e, 0xe4, 0xd7, 0xf4, 0xba, 0xfb, 
    0xcb, 0xf4, 0x4f, 0xd7, 0x07, 0x29, 0xd6, 0x1e, 0xf5, 0xca, 0x1b, 0xf6, 
    0xfd, 0xf8, 0x6b, 0xf6, 0xb6, 0x44, 0x3c, 0x02, 0x0f, 0x1e, 0x30, 0x2d, 
    0xdb, 0xe2, 0xfc, 0xf8, 0xe9, 0xcf, 0xc0, 0x37, 0xe4, 0xd5, 0xba, 0xe0, 
    0xd3, 0xed, 0x0e, 0xde, 0xe4, 0x54, 0xd5, 0x1f, 0x3b, 0x00, 0xe5, 0x28, 
    0x4a, 0xf6, 0x11, 0x19, 0x4c, 0x3b, 0x81, 0x2d, 0x28, 0x2e, 0x0a, 0x43, 
    0xdd, 0xf8, 0xc9, 0x5b, 0xf1, 0xdd, 0x2a, 0x02, 0xff, 0xf9, 0x6a, 0xe8, 
    0x61, 0xd7, 0x1f, 0xf9, 0x1b, 0xdb, 0x4b, 0xdc, 0x4c, 0x27, 0x60, 0x16, 
    0x0e, 0x67, 0x22, 0x1e, 0x14, 0xe4, 0x31, 0xc0, 0x3d, 0x14, 0x49, 0xb9, 
    0xca, 0x0b, 0xaa, 0xdf, 0x22, 0xdb, 0xa9, 0x9b, 0xd0, 0x21, 0xfd, 0xd6, 
    0x93, 0xc1, 0xd1, 0xdb, 0xe7, 0x23, 0xc2, 0x40, 0xcb, 0xe6, 0xea, 0xbb, 
    0xd3, 0x6b, 0xd2, 0xdf, 0xb2, 0x10, 0xcd, 0xec, 0x28, 0xeb, 0xdb, 0xca, 
    0x45, 0x1e, 0x16, 0xda, 0xe1, 0x12, 0x12, 0xdf, 0x07, 0xe2, 0x04, 0xc9, 
    0x1b, 0xe4, 0xee, 0xf8, 0x1d, 0xf3, 0xd4, 0x18, 0x1b, 0x07, 0xe8, 0xf6, 
    0x14, 0x2f, 0xef, 0x04, 0x2b, 0xf8, 0xdd, 0xfb, 0x35, 0xf6, 0x00, 0xd8, 
    0xff, 0x1c, 0xe6, 0xe5, 0x10, 0x11, 0xd4, 0x1c, 0xed, 0xfa, 0x39, 0x03, 
    0x1e, 0xdb, 0x3e, 0x12, 0x0d, 0xf5, 0x21, 0x0d, 0x40, 0xfc, 0xfb, 0x0b, 
    0xf7, 0xea, 0x0c, 0xef, 0x24, 0xe9, 0xf8, 0x3f, 0x00, 0xea, 0xf5, 0x15, 
    0xf6, 0xe8, 0x24, 0xf2, 0x18, 0xf2, 0x81, 0x09, 0xea, 0xec, 0x18, 0x16, 
    0x1b, 0x01, 0xe7, 0xff, 0xea, 0xf2, 0xff, 0x2e, 0xc7, 0xdb, 0xf7, 0xd9, 
    0x3b, 0xd9, 0x16, 0x1e, 0xf4, 0xf1, 0xc8, 0xf7, 0xf0, 0x06, 0x3c, 0xde, 
    0xd4, 0xdf, 0xe4, 0xf0, 0xe3, 0x24, 0x1f, 0xda, 0x13, 0x20, 0xe4, 0xf3, 
    0x26, 0xe9, 0x0c, 0xeb, 0xa5, 0x9f, 0x8f, 0xff, 0x12, 0xf3, 0xea, 0x0d, 
    0x46, 0xca, 0xc0, 0x6d, 0x1f, 0x2e, 0xce, 0xfe, 0xd7, 0xe7, 0xda, 0xf6, 
    0x46, 0xef, 0x0c, 0xd3, 0x01, 0xee, 0xfb, 0x00, 0xda, 0x42, 0x05, 0x1b, 
    0xea, 0xa8, 0xbf, 0xaa, 0x5d, 0x00, 0x02, 0xca, 0xd4, 0x4b, 0x4c, 0xdc, 
    0x37, 0xfd, 0xc5, 0x3f, 0x11, 0xbf, 0x81, 0xf0, 0x7e, 0xf1, 0xcb, 0xcb, 
    0x4d, 0x03, 0xe4, 0xf6, 0x4e, 0x0f, 0xc5, 0x4a, 0xc2, 0x0d, 0x6c, 0xe6, 
    0x5e, 0xee, 0x4c, 0x4f, 0xe1, 0xdd, 0xc3, 0x5d, 0xec, 0xf1, 0x49, 0x67, 
    0xc8, 0xdd, 0x16, 0x37, 0x03, 0xd7, 0x38, 0xe4, 0x37, 0xb4, 0x1b, 0x72, 
    0xf9, 0x31, 0x7a, 0xf0, 0xf0, 0xe8, 0xb7, 0xe5, 0x09, 0x24, 0x27, 0x01, 
    0x46, 0x3f, 0xd6, 0x16, 0x20, 0xf4, 0xc8, 0x1c, 0xfd, 0x44, 0xfa, 0x05, 
    0x27, 0xea, 0x7f, 0x0f, 0x3e, 0xf3, 0xea, 0xfd, 0x54, 0x1e, 0xfa, 0x28, 
    0x18, 0x35, 0x1e, 0x37, 0x29, 0x42, 0x7a, 0x05, 0x1b, 0xa5, 0x38, 0xfa, 
    0x2e, 0x11, 0x59, 0x09, 0x2a, 0x06, 0xf6, 0xf6, 0xea, 0xe9, 0x18, 0xff, 
    0xf4, 0x15, 0xdb, 0x11, 0x0b, 0xf7, 0xf8, 0xfd, 0x1c, 0x37, 0x19, 0x27, 
    0x40, 0x44, 0xce, 0xf5, 0x1e, 0x38, 0x13, 0xff, 0x13, 0x37, 0xf2, 0x26, 
    0xd0, 0xb6, 0x29, 0xc4, 0x02, 0xd9, 0x19, 0x15, 0xf3, 0xbc, 0xd6, 0xea, 
    0x0b, 0x21, 0x08, 0x25, 0x07, 0xde, 0x45, 0xfd, 0x33, 0xf4, 0xe4, 0x15, 
    0x22, 0xfa, 0x2e, 0x37, 0xfa, 0x31, 0x14, 0xff, 0x17, 0x2f, 0x2e, 0x0c, 
    0xef, 0xd4, 0xf1, 0x27, 0xd4, 0x0f, 0x02, 0x1a, 0x28, 0xcf, 0xe5, 0xe7, 
    0x78, 0x13, 0xaa, 0xdf, 0xea, 0xac, 0xeb, 0x21, 0x08, 0x39, 0xe1, 0x38, 
    0x14, 0xb1, 0xcb, 0x74, 0x60, 0xd2, 0xbb, 0xc8, 0x26, 0xa9, 0xd5, 0x39, 
    0xe2, 0x7f, 0xdd, 0x28, 0x5c, 0xc8, 0xc8, 0x32, 0xfd, 0xdd, 0x48, 0xae, 
    0x06, 0xa8, 0x40, 0x62, 0x21, 0xeb, 0xd4, 0x20, 0x2f, 0xde, 0xcf, 0x67, 
    0x09, 0x9f, 0x03, 0xd3, 0x2c, 0xd5, 0x26, 0xed, 0x14, 0x2a, 0x1f, 0x35, 
    0x35, 0x36, 0xf8, 0xd2, 0xe5, 0xe2, 0x3e, 0xae, 0xee, 0xb1, 0x22, 0x0e, 
    0x49, 0xc1, 0x10, 0x5d, 0xd7, 0x01, 0x50, 0x0a, 0xee, 0xce, 0xd8, 0xa0, 
    0x64, 0xc0, 0x6b, 0x16, 0x04, 0xb5, 0x32, 0x17, 0x67, 0x4d, 0xfa, 0xdd, 
    0xbd, 0xb9, 0xfa, 0x42, 0x52, 0x0f, 0xf4, 0xb7, 0xb7, 0x36, 0x0b, 0x10, 
    0x15, 0x09, 0xda, 0x06, 0x2b, 0xdf, 0x71, 0x47, 0xfb, 0xd1, 0x3e, 0x18, 
    0x59, 0xf2, 0x0f, 0x15, 0x65, 0xe3, 0xed, 0xee, 0xdc, 0xd1, 0xff, 0xec, 
    0x1b, 0xc9, 0xe3, 0xeb, 0xce, 0xd7, 0xb9, 0x08, 0xe6, 0xc6, 0xdc, 0xf6, 
    0x1c, 0x21, 0xea, 0x7f, 0x11, 0x31, 0xe8, 0x21, 0xfb, 0x3a, 0x47, 0x39, 
    0x05, 0x0b, 0x0f, 0xcd, 0x24, 0x09, 0xba, 0xcb, 0x01, 0xbd, 0xff, 0x54, 
    0xf1, 0x34, 0xaf, 0xdd, 0x6d, 0x2b, 0x51, 0xc8, 0x09, 0xee, 0x53, 0xcf, 
    0x65, 0xfc, 0x0d, 0xfe, 0x22, 0x38, 0xbe, 0x70, 0x24, 0xbf, 0x18, 0x12, 
    0xb2, 0xf3, 0xda, 0xc1, 0xfd, 0x88, 0x26, 0x19, 0x19, 0x8a, 0xf8, 0x04, 
    0xf1, 0x10, 0xe1, 0x68, 0x22, 0xec, 0x09, 0xeb, 0xe7, 0xdd, 0x46, 0x24, 
    0xe2, 0x1a, 0xdc, 0xe5, 0x0d, 0x13, 0xbb, 0xcd, 0xf2, 0xf7, 0xf4, 0xe1, 
    0x3f, 0xdf, 0x11, 0x43, 0x20, 0x70, 0xd1, 0x3f, 0x17, 0x06, 0xfa, 0x66, 
    0x10, 0x04, 0xbd, 0x07, 0x3d, 0xe0, 0xeb, 0xc7, 0x39, 0x3f, 0xd4, 0x1d, 
    0x3f, 0x4d, 0xd5, 0xd2, 0xea, 0xca, 0x3e, 0xa2, 0x33, 0xda, 0x36, 0x25, 
    0x4e, 0x15, 0xb3, 0xe7, 0x39, 0xc6, 0x08, 0x5e, 0xd8, 0xae, 0x45, 0xfc, 
    0xf9, 0xcb, 0x03, 0x61, 0xd2, 0xd7, 0xb0, 0x7f, 0x56, 0x45, 0xfc, 0x0f, 
    0xd5, 0xa3, 0x29, 0x01, 0x02, 0x83, 0x55, 0x46, 0xdd, 0x91, 0x0c, 0x17, 
    0xe3, 0xc7, 0x20, 0x31, 0xc2, 0x95, 0xcf, 0xe1, 0xca, 0xe2, 0xec, 0xb6, 
    0x2b, 0xcd, 0x19, 0x39, 0x22, 0xe7, 0x0f, 0xc5, 0xf0, 0xc5, 0x18, 0xed, 
    0x26, 0x10, 0xc8, 0x41, 0xeb, 0xec, 0xcd, 0x0d, 0x1d, 0xe5, 0xbf, 0x1d, 
    0x2d, 0xc6, 0xc7, 0xd9, 0x05, 0xf5, 0xdb, 0xdc, 0xd8, 0xf3, 0x2f, 0x51, 
    0x1c, 0x19, 0xc7, 0xf6, 0xe4, 0xf8, 0x96, 0xbe, 0xd2, 0xe0, 0xd2, 0x36, 
    0x16, 0xec, 0x12, 0x37, 0x12, 0xb6, 0xc5, 0xa4, 0xff, 0x9e, 0x23, 0xb8, 
    0x09, 0x95, 0x35, 0x5b, 0x17, 0x1e, 0x0e, 0x23, 0x37, 0x45, 0x12, 0x73, 
    0xfe, 0xe2, 0x84, 0xa8, 0x7f, 0xcc, 0x12, 0x0f, 0x41, 0x39, 0xfe, 0xde, 
    0x73, 0xf0, 0xc0, 0xf2, 0xc9, 0xc6, 0x48, 0xb2, 0x5c, 0xd0, 0x01, 0xfd, 
    0x70, 0xb6, 0xe4, 0x66, 0x20, 0x25, 0x15, 0x55, 0xcd, 0xde, 0x5c, 0x02, 
    0x5f, 0xcb, 0x1e, 0x08, 0x6b, 0xc3, 0xe9, 0x05, 0x6b, 0x00, 0x0c, 0x38, 
    0x28, 0xb9, 0x51, 0xf0, 0x37, 0xed, 0xc2, 0x05, 0x08, 0xe6, 0x3b, 0x06, 
    0x3b, 0xaf, 0xfb, 0xc0, 0x2c, 0x66, 0xef, 0x2f, 0xc6, 0x23, 0x4a, 0x1c, 
    0x63, 0x88, 0xfd, 0xde, 0x22, 0xcc, 0x5a, 0xd9, 0x3e, 0x44, 0xf1, 0x28, 
    0xd4, 0x5f, 0x04, 0x24, 0xe3, 0xbb, 0x55, 0x55, 0x6f, 0xc3, 0xc4, 0x2f, 
    0xe4, 0xf9, 0x69, 0x75, 0x05, 0x26, 0x3a, 0xfb, 0x50, 0x3b, 0x43, 0xf0, 
    0x11, 0x56, 0x4d, 0x1d, 0x7c, 0xd0, 0x14, 0x26, 0xc5, 0x23, 0xfc, 0x54, 
    0x1a, 0xf4, 0x71, 0xf1, 0x03, 0xfd, 0x68, 0xb9, 0x7f, 0x4c, 0x08, 0x7e, 
    0x38, 0x37, 0x38, 0x0f, 0x4a, 0xc0, 0x47, 0xd1, 0x2d, 0x4c, 0xb2, 0xcb, 
    0x4d, 0xff, 0xbd, 0x3c, 0xde, 0xd2, 0xbf, 0xb1, 0x06, 0x6a, 0x25, 0xa6, 
    0xe2, 0x9a, 0xad, 0x9b, 0x4e, 0x10, 0xe8, 0x52, 0x31, 0x67, 0x65, 0xe4, 
    0x1f, 0x4f, 0xe7, 0xf0, 0xa7, 0xe9, 0x09, 0x08, 0x24, 0x2d, 0xfe, 0x16, 
    0xfa, 0xd4, 0x6f, 0x16, 0x47, 0xb6, 0xf6, 0x08, 0x19, 0x1b, 0x49, 0xad, 
    0xfb, 0x4b, 0x42, 0x5a, 0x20, 0x36, 0x79, 0xfc, 0x6b, 0xfc, 0x61, 0x43, 
    0x6c, 0xf2, 0x39, 0x05, 0x24, 0x2f, 0x81, 0x07, 0x2a, 0x01, 0xb6, 0xdf, 
    0xc4, 0xd9, 0xf8, 0xbb, 0xe8, 0x3d, 0xcf, 0xf1, 0x41, 0x5c, 0x25, 0x3f, 
    0xe7, 0xf0, 0xd6, 0xf7, 0x0b, 0x2d, 0xcb, 0xda, 0x1e, 0x30, 0xd4, 0xed, 
    0xee, 0x17, 0xd9, 0x40, 0xfa, 0x5a, 0xdc, 0xcc, 0xcd, 0x24, 0xca, 0xc0, 
    0xdd, 0xf5, 0xf0, 0x13, 0x4a, 0xf9, 0xd4, 0xd8, 0x9e, 0xa0, 0xe9, 0xd1, 
    0xdc, 0xb5, 0x19, 0xcb, 0x98, 0x19, 0xe7, 0x00, 0xdd, 0x3d, 0x41, 0x22, 
    0x1d, 0x3c, 0xf7, 0x2c, 0xca, 0x09, 0x35, 0xda, 0xf1, 0x05, 0x3b, 0x0f, 
    0x0c, 0x1e, 0x04, 0x4a, 0x1b, 0xf0, 0x4a, 0x38, 0x0b, 0xd8, 0x44, 0xcd, 
    0x01, 0x31, 0x6c, 0xdf, 0x3f, 0x33, 0x31, 0x47, 0x07, 0x44, 0x72, 0xef, 
    0x04, 0xa7, 0x52, 0xd4, 0x5e, 0xf5, 0x60, 0xff, 0x68, 0x2c, 0xdd, 0x03, 
    0x0a, 0x34, 0x2d, 0xe1, 0xf4, 0x22, 0xdf, 0xce, 0xf9, 0x3e, 0xd7, 0xa8, 
    0x48, 0x59, 0xb0, 0x50, 0xe2, 0x19, 0xec, 0xef, 0xb8, 0x63, 0xad, 0x99, 
    0xfb, 0xf2, 0xcc, 0x94, 0x09, 0xe2, 0xc3, 0x49, 0xc2, 0x11, 0x05, 0xa3, 
    0xb9, 0x02, 0xd9, 0xde, 0xc1, 0xdf, 0xf1, 0xba, 0xea, 0x11, 0xf9, 0x23, 
    0xfe, 0x65, 0xd9, 0xa8, 0xb8, 0x81, 0x30, 0x10, 0x99, 0x10, 0xf3, 0xd4, 
    0xe3, 0xef, 0xf1, 0x28, 0xd5, 0x40, 0x3c, 0x3f, 0x11, 0xba, 0x3e, 0x30, 
    0x29, 0xc7, 0xca, 0xc1, 0x07, 0xc6, 0xdc, 0xe0, 0x52, 0xe0, 0xa6, 0xdc, 
    0x45, 0xf2, 0xe3, 0xd2, 0x14, 0x50, 0xff, 0x5b, 0x5c, 0xf6, 0xa0, 0xe1, 
    0x33, 0xe1, 0x81, 0xbc, 0x0e, 0x68, 0xe6, 0x59, 0x5f, 0x4b, 0xae, 0x46, 
    0x10, 0xb7, 0xe6, 0xe1, 0x26, 0xe1, 0x51, 0x51, 0x29, 0xf4, 0xd0, 0x1f, 
    0x3d, 0xc3, 0x10, 0xde, 0x08, 0xd4, 0xfb, 0xcb, 0x32, 0xd8, 0x25, 0x43, 
    0x37, 0xbc, 0x20, 0x25, 0xf8, 0xe3, 0x6f, 0x2c, 0xc9, 0x94, 0x47, 0xa2, 
    0x4f, 0xa7, 0xd2, 0xe2, 0x41, 0xc7, 0x48, 0x1f, 0xf8, 0xe5, 0x2c, 0x55, 
    0x7c, 0x3d, 0x2e, 0x10, 0xfc, 0x33, 0xdd, 0xbf, 0xe8, 0x75, 0xcf, 0x38, 
    0x33, 0xf2, 0x25, 0xd2, 0x18, 0xf1, 0xe3, 0xf5, 0xcf, 0xb0, 0xfc, 0x4e, 
    0xff, 0x2f, 0xeb, 0xe2, 0x22, 0xca, 0xcf, 0x35, 0x32, 0xd6, 0xc9, 0x3a, 
    0x50, 0x18, 0x9b, 0x35, 0x13, 0x40, 0x1f, 0xd5, 0xe4, 0xb2, 0xfe, 0x13, 
    0x49, 0xf8, 0xe4, 0x43, 0xfd, 0x32, 0xcf, 0xc0, 0xce, 0x2c, 0x01, 0xfd, 
    0x2d, 0xe3, 0x31, 0x24, 0x5a, 0x44, 0xf7, 0x6c, 0x14, 0x7b, 0x49, 0x3d, 
    0xe5, 0x01, 0x1c, 0x14, 0xcc, 0xac, 0x15, 0x2f, 0x63, 0x22, 0x04, 0xfe, 
    0xcd, 0xd5, 0x66, 0x3c, 0x60, 0xe1, 0xfd, 0xf1, 0x15, 0xd6, 0xe1, 0xea, 
    0x3f, 0xb1, 0xff, 0x22, 0xca, 0xca, 0x2a, 0x5b, 0xe4, 0x20, 0xbd, 0x1b, 
    0xfd, 0xe1, 0xdb, 0x65, 0x2f, 0x24, 0x98, 0x2b, 0x2c, 0x48, 0x94, 0xa7, 
    0x9a, 0x52, 0xea, 0xdd, 0x81, 0x47, 0xaa, 0x95, 0xb3, 0xf5, 0xd5, 0xbb, 
    0x1a, 0x11, 0x33, 0xb3, 0x23, 0xb3, 0x13, 0xf2, 0xf0, 0x1a, 0x17, 0x2e, 
    0x69, 0xd2, 0xcd, 0xaa, 0x3e, 0xe5, 0xc0, 0xfd, 0xf0, 0x1e, 0xb8, 0x2b, 
    0x4c, 0x31, 0xa1, 0xed, 0x20, 0xea, 0xdf, 0xdc, 0x36, 0xd3, 0xf4, 0x2a, 
    0x37, 0x7f, 0xb2, 0x16, 0xf8, 0xf1, 0xb8, 0x62, 0xff, 0x14, 0x44, 0x07, 
    0x63, 0xee, 0x5e, 0xdc, 0x5d, 0xf0, 0x10, 0x18, 0x66, 0xb8, 0x49, 0x5f, 
    0x3d, 0xc1, 0xe0, 0xea, 0x72, 0xe9, 0x0f, 0x22, 0x05, 0xdb, 0xea, 0xed, 
    0xf3, 0xb9, 0xf7, 0x65, 0xc3, 0xec, 0x5b, 0xfc, 0xdf, 0x0e, 0x1d, 0x5d, 
    0x3c, 0xd6, 0xfd, 0x1a, 0x00, 0x1a, 0x34, 0xf4, 0xda, 0x0b, 0xdf, 0xdc, 
    0x1e, 0xb8, 0x32, 0x0b, 0x1e, 0xec, 0x16, 0x68, 0x20, 0x3c, 0xe6, 0x3c, 
    0x02, 0xdf, 0xe2, 0x3f, 0x05, 0x1a, 0x43, 0x46, 0x2a, 0xdc, 0x2a, 0x30, 
    0xf8, 0xeb, 0xf0, 0xe0, 0x1a, 0xfb, 0xff, 0xff, 0x04, 0x00, 0x00, 0x00, 
    0x80, 0x00, 0x00, 0x00, 0x40, 0xff, 0xff, 0xff, 0x7b, 0x06, 0x00, 0x00, 
    0xc4, 0x02, 0x00, 0x00, 0x71, 0x0b, 0x00, 0x00, 0x12, 0x0a, 0x00, 0x00, 
    0x2a, 0x02, 0x00, 0x00, 0xb8, 0x0c, 0x00, 0x00, 0x9e, 0x11, 0x00, 0x00, 
    0x25, 0x07, 0x00, 0x00, 0x7d, 0x04, 0x00, 0x00, 0xb3, 0x05, 0x00, 0x00, 
    0xeb, 0x17, 0x00, 0x00, 0x73, 0x05, 0x00, 0x00, 0x8b, 0x00, 0x00, 0x00, 
    0xc8, 0x05, 0x00, 0x00, 0xd3, 0x04, 0x00, 0x00, 0x13, 0x06, 0x00, 0x00, 
    0x71, 0x0f, 0x00, 0x00, 0x32, 0x0c, 0x00, 0x00, 0xd0, 0x04, 0x00, 0x00, 
    0x1f, 0x06, 0x00, 0x00, 0xa0, 0x0f, 0x00, 0x00, 0xe6, 0x06, 0x00, 0x00, 
    0x37, 0x0a, 0x00, 0x00, 0xc8, 0x05, 0x00, 0x00, 0x36, 0x09, 0x00, 0x00, 
    0x1f, 0x0a, 0x00, 0x00, 0x2e, 0x07, 0x00, 0x00, 0x0d, 0x0a, 0x00, 0x00, 
    0x6f, 0x09, 0x00, 0x00, 0xc0, 0x0b, 0x00, 0x00, 0x72, 0x05, 0x00, 0x00, 
    0xa6, 0xfb, 0xff, 0xff, 0x04, 0x00, 0x00, 0x00, 0xe0, 0x00, 0x00, 0x00, 
    0xf1, 0x28, 0x7f, 0x01, 0xed, 0xe8, 0x46, 0xa8, 0xb2, 0xeb, 0x25, 0x19, 
    0x26, 0x25, 0xf2, 0xff, 0x6b, 0x5f, 0x9b, 0x0a, 0xf7, 0xfd, 0xfa, 0xed, 
    0x3d, 0x67, 0xe8, 0xe2, 0x2a, 0x08, 0xb1, 0x43, 0xda, 0x1d, 0x51, 0x07, 
    0x96, 0xab, 0x65, 0xb8, 0xb7, 0xe4, 0x31, 0xdd, 0x64, 0x3b, 0x3c, 0x3b, 
    0x21, 0x21, 0xaf, 0xbb, 0x53, 0x30, 0x0f, 0xe3, 0x54, 0x43, 0xfd, 0x00, 
    0x17, 0xd2, 0xc5, 0x0e, 0xa5, 0x37, 0x02, 0xaf, 0x9c, 0x92, 0x06, 0x2d, 
    0x0d, 0xf2, 0x1b, 0xb8, 0xe4, 0x43, 0x45, 0x23, 0x46, 0x05, 0xe2, 0x0a, 
    0x08, 0x00, 0x5f, 0x3d, 0x1c, 0x0a, 0xb2, 0x1a, 0xb3, 0x1f, 0xf5, 0x5e, 
    0x9f, 0x5c, 0x2b, 0xb3, 0x06, 0xc6, 0x34, 0xf0, 0xa6, 0xd1, 0x1f, 0x10, 
    0x0e, 0x5e, 0x5a, 0x1c, 0x16, 0xaa, 0xca, 0x5d, 0x62, 0x2b, 0x58, 0x38, 
    0x2a, 0x39, 0xaf, 0xa2, 0xbe, 0x06, 0xff, 0x45, 0x28, 0x33, 0x55, 0x13, 
    0xbe, 0x21, 0xc9, 0x2f, 0x9e, 0xa6, 0x3d, 0x22, 0x64, 0x61, 0xfb, 0xed, 
    0x3f, 0xe6, 0x4f, 0x0b, 0x10, 0xe3, 0x1d, 0x25, 0x4e, 0x20, 0x0e, 0xaf, 
    0xcb, 0x4a, 0x25, 0x11, 0x00, 0xfc, 0x3e, 0xce, 0xc4, 0x0c, 0xb0, 0x16, 
    0xca, 0x4f, 0x59, 0xf6, 0x33, 0xf7, 0x3d, 0xe5, 0x46, 0xbe, 0x3c, 0x46, 
    0x3f, 0xb8, 0xdc, 0xb8, 0x54, 0x0c, 0xf4, 0xf4, 0x0f, 0x63, 0x0c, 0x2d, 
    0xcb, 0x27, 0xe2, 0xfe, 0x3d, 0x45, 0xc7, 0xd9, 0x13, 0xef, 0x0b, 0x5b, 
    0xef, 0xf5, 0x12, 0xf3, 0x50, 0xa4, 0xf6, 0x19, 0x48, 0xef, 0x32, 0x9f, 
    0xe6, 0x5c, 0xf9, 0xb8, 0xbe, 0xe5, 0xf6, 0x24, 0x92, 0xfc, 0xff, 0xff, 
    0x04, 0x00, 0x00, 0x00, 0x04, 0x00, 0x00, 0x00, 0x88, 0xfe, 0xff, 0xff, 
    0x34, 0xe1, 0xff, 0xff, 0xa6, 0xfc, 0xff, 0xff, 0x04, 0x00, 0x00, 0x00, 
    0x04, 0x00, 0x00, 0x00, 0x20, 0x00, 0x00, 0x00, 0xb6, 0xfc, 0xff, 0xff, 
    0x04, 0x00, 0x00, 0x00, 0x04, 0x00, 0x00, 0x00, 0x04, 0x00, 0x00, 0x00, 
    0xc6, 0xfc, 0xff, 0xff, 0x04, 0x00, 0x00, 0x00, 0x04, 0x00, 0x00, 0x00, 
    0x10, 0x00, 0x00, 0x00, 0xd6, 0xfc, 0xff, 0xff, 0x04, 0x00, 0x00, 0x00, 
    0x04, 0x00, 0x00, 0x00, 0x02, 0x00, 0x00, 0x00, 0xe6, 0xfc, 0xff, 0xff, 
    0x04, 0x00, 0x00, 0x00, 0x04, 0x00, 0x00, 0x00, 0x01, 0x00, 0x00, 0x00, 
    0xf6, 0xfc, 0xff, 0xff, 0x04, 0x00, 0x00, 0x00, 0x04, 0x00, 0x00, 0x00, 
    0x00, 0x00, 0x00, 0x00, 0x98, 0xe1, 0xff, 0xff, 0x9c, 0xe1, 0xff, 0xff, 
    0x0f, 0x00, 0x00, 0x00, 0x4d, 0x4c, 0x49, 0x52, 0x20, 0x43, 0x6f, 0x6e, 
    0x76, 0x65, 0x72, 0x74, 0x65, 0x64, 0x2e, 0x00, 0x01, 0x00, 0x00, 0x00, 
    0x14, 0x00, 0x00, 0x00, 0x00, 0x00, 0x0e, 0x00, 0x18, 0x00, 0x14, 0x00, 
    0x10, 0x00, 0x0c, 0x00, 0x08, 0x00, 0x04, 0x00, 0x0e, 0x00, 0x00, 0x00, 
    0x14, 0x00, 0x00, 0x00, 0x1c, 0x00, 0x00, 0x00, 0x2c, 0x04, 0x00, 0x00, 
    0x30, 0x04, 0x00, 0x00, 0x34, 0x04, 0x00, 0x00, 0x04, 0x00, 0x00, 0x00, 
    0x6d, 0x61, 0x69, 0x6e, 0x00, 0x00, 0x00, 0x00, 0x10, 0x00, 0x00, 0x00, 
    0xf4, 0x03, 0x00, 0x00, 0x98, 0x03, 0x00, 0x00, 0x44, 0x03, 0x00, 0x00, 
    0x08, 0x03, 0x00, 0x00, 0xb8, 0x02, 0x00, 0x00, 0x70, 0x02, 0x00, 0x00, 
    0x28, 0x02, 0x00, 0x00, 0xf4, 0x01, 0x00, 0x00, 0xb4, 0x01, 0x00, 0x00, 
    0x74, 0x01, 0x00, 0x00, 0x2c, 0x01, 0x00, 0x00, 0xf8, 0x00, 0x00, 0x00, 
    0xb8, 0x00, 0x00, 0x00, 0x78, 0x00, 0x00, 0x00, 0x34, 0x00, 0x00, 0x00, 
    0x10, 0x00, 0x00, 0x00, 0x00, 0x00, 0x0a, 0x00, 0x10, 0x00, 0x0c, 0x00, 
    0x08, 0x00, 0x04, 0x00, 0x0a, 0x00, 0x00, 0x00, 0x0c, 0x00, 0x00, 0x00, 
    0x10, 0x00, 0x00, 0x00, 0x06, 0x00, 0x00, 0x00, 0x01, 0x00, 0x00, 0x00, 
    0x21, 0x00, 0x00, 0x00, 0x01, 0x00, 0x00, 0x00, 0x20, 0x00, 0x00, 0x00, 
    0xde, 0xfc, 0xff, 0xff, 0x14, 0x00, 0x00, 0x00, 0x00, 0x00, 0x00, 0x31, 
    0x18, 0x00, 0x00, 0x00, 0x1c, 0x00, 0x00, 0x00, 0x05, 0x00, 0x00, 0x00, 
    0x9a, 0xfc, 0xff, 0xff, 0x01, 0x00, 0x00, 0x00, 0x01, 0x00, 0x00, 0x00, 
    0x01, 0x00, 0x00, 0x00, 0x20, 0x00, 0x00, 0x00, 0x04, 0x00, 0x00, 0x00, 
    0x1f, 0x00, 0x00, 0x00, 0x09, 0x00, 0x00, 0x00, 0x1c, 0x00, 0x00, 0x00, 
    0x08, 0x00, 0x00, 0x00, 0x1e, 0xfd, 0xff, 0xff, 0x14, 0x00, 0x00, 0x00, 
    0x00, 0x00, 0x00, 0x3b, 0x14, 0x00, 0x00, 0x00, 0x18, 0x00, 0x00, 0x00, 
    0x04, 0x00, 0x00, 0x00, 0x26, 0xfe, 0xff, 0xff, 0x04, 0x00, 0x00, 0x00, 
    0x01, 0x00, 0x00, 0x00, 0x1f, 0x00, 0x00, 0x00, 0x04, 0x00, 0x00, 0x00, 
    0x1e, 0x00, 0x00, 0x00, 0x05, 0x00, 0x00, 0x00, 0x05, 0x00, 0x00, 0x00, 
    0x07, 0x00, 0x00, 0x00, 0x5a, 0xfd, 0xff, 0xff, 0x14, 0x00, 0x00, 0x00, 
    0x00, 0x00, 0x00, 0x20, 0x14, 0x00, 0x00, 0x00, 0x18, 0x00, 0x00, 0x00, 
    0x03, 0x00, 0x00, 0x00, 0x1e, 0xfe, 0xff, 0xff, 0x01, 0x00, 0x00, 0x00, 
    0x01, 0x00, 0x00, 0x00, 0x1e, 0x00, 0x00, 0x00, 0x04, 0x00, 0x00, 0x00, 
    0x1d, 0x00, 0x00, 0x00, 0x01, 0x00, 0x00, 0x00, 0x02, 0x00, 0x00, 0x00, 
    0x02, 0x00, 0x00, 0x00, 0x96, 0xfd, 0xff, 0xff, 0x14, 0x00, 0x00, 0x00, 
    0x00, 0x00, 0x00, 0x37, 0x14, 0x00, 0x00, 0x00, 0x18, 0x00, 0x00, 0x00, 
    0x02, 0x00, 0x00, 0x00, 0x0e, 0xfe, 0xff, 0xff, 0x00, 0x00, 0x00, 0x02, 
    0x01, 0x00, 0x00, 0x00, 0x1d, 0x00, 0x00, 0x00, 0x01, 0x00, 0x00, 0x00, 
    0x1c, 0x00, 0x00, 0x00, 0xc6, 0xfd, 0xff, 0xff, 0x14, 0x00, 0x00, 0x00, 
    0x00, 0x00, 0x00, 0x31, 0x1c, 0x00, 0x00, 0x00, 0x20, 0x00, 0x00, 0x00, 
    0x05, 0x00, 0x00, 0x00, 0xb8, 0xfd, 0xff, 0xff, 0x00, 0x00, 0x00, 0x01, 
    0x02, 0x00, 0x00, 0x00, 0x02, 0x00, 0x00, 0x00, 0x01, 0x00, 0x00, 0x00, 
    0x1c, 0x00, 0x00, 0x00, 0x04, 0x00, 0x00, 0x00, 0x1b, 0x00, 0x00, 0x00, 
    0x0b, 0x00, 0x00, 0x00, 0x18, 0x00, 0x00, 0x00, 0x0a, 0x00, 0x00, 0x00, 
    0x0a, 0xfe, 0xff, 0xff, 0x14, 0x00, 0x00, 0x00, 0x00, 0x00, 0x00, 0x3b, 
    0x14, 0x00, 0x00, 0x00, 0x18, 0x00, 0x00, 0x00, 0x04, 0x00, 0x00, 0x00, 
    0x12, 0xff, 0xff, 0xff, 0x04, 0x00, 0x00, 0x00, 0x01, 0x00, 0x00, 0x00, 
    0x1b, 0x00, 0x00, 0x00, 0x04, 0x00, 0x00, 0x00, 0x1a, 0x00, 0x00, 0x00, 
    0x05, 0x00, 0x00, 0x00, 0x05, 0x00, 0x00, 0x00, 0x06, 0x00, 0x00, 0x00, 
    0x46, 0xfe, 0xff, 0xff, 0x14, 0x00, 0x00, 0x00, 0x00, 0x00, 0x00, 0x20, 
    0x14, 0x00, 0x00, 0x00, 0x18, 0x00, 0x00, 0x00, 0x03, 0x00, 0x00, 0x00, 
    0x0a, 0xff, 0xff, 0xff, 0x01, 0x00, 0x00, 0x00, 0x01, 0x00, 0x00, 0x00, 
    0x1a, 0x00, 0x00, 0x00, 0x04, 0x00, 0x00, 0x00, 0x19, 0x00, 0x00, 0x00, 
    0x01, 0x00, 0x00, 0x00, 0x02, 0x00, 0x00, 0x00, 0x02, 0x00, 0x00, 0x00, 
    0x82, 0xfe, 0xff, 0xff, 0x14, 0x00, 0x00, 0x00, 0x00, 0x00, 0x00, 0x37, 
    0x14, 0x00, 0x00, 0x00, 0x18, 0x00, 0x00, 0x00, 0x02, 0x00, 0x00, 0x00, 
    0xfa, 0xfe, 0xff, 0xff, 0x00, 0x00, 0x00, 0x02, 0x01, 0x00, 0x00, 0x00, 
    0x19, 0x00, 0x00, 0x00, 0x01, 0x00, 0x00, 0x00, 0x18, 0x00, 0x00, 0x00, 
    0xb2, 0xfe, 0xff, 0xff, 0x14, 0x00, 0x00, 0x00, 0x00, 0x00, 0x00, 0x31, 
    0x1c, 0x00, 0x00, 0x00, 0x20, 0x00, 0x00, 0x00, 0x05, 0x00, 0x00, 0x00, 
    0xa4, 0xfe, 0xff, 0xff, 0x00, 0x00, 0x00, 0x01, 0x02, 0x00, 0x00, 0x00, 
    0x02, 0x00, 0x00, 0x00, 0x01, 0x00, 0x00, 0x00, 0x18, 0x00, 0x00, 0x00, 
    0x04, 0x00, 0x00, 0x00, 0x17, 0x00, 0x00, 0x00, 0x0d, 0x00, 0x00, 0x00, 
    0x14, 0x00, 0x00, 0x00, 0x0c, 0x00, 0x00, 0x00, 0xf6, 0xfe, 0xff, 0xff, 
    0x1c, 0x00, 0x00, 0x00, 0x00, 0x00, 0x00, 0x3b, 0x1c, 0x00, 0x00, 0x00, 
    0x20, 0x00, 0x00, 0x00, 0x04, 0x00, 0x00, 0x00, 0x00, 0x00, 0x06, 0x00, 
    0x08, 0x00, 0x04, 0x00, 0x06, 0x00, 0x00, 0x00, 0x04, 0x00, 0x00, 0x00, 
    0x01, 0x00, 0x00, 0x00, 0x17, 0x00, 0x00, 0x00, 0x04, 0x00, 0x00, 0x00, 
    0x16, 0x00, 0x00, 0x00, 0x03, 0x00, 0x00, 0x00, 0x03, 0x00, 0x00, 0x00, 
    0x04, 0x00, 0x00, 0x00, 0x3a, 0xff, 0xff, 0xff, 0x24, 0x00, 0x00, 0x00, 
    0x00, 0x00, 0x00, 0x20, 0x24, 0x00, 0x00, 0x00, 0x28, 0x00, 0x00, 0x00, 
    0x03, 0x00, 0x00, 0x00, 0x00, 0x00, 0x0e, 0x00, 0x08, 0x00, 0x00, 0x00, 
    0x00, 0x00, 0x00, 0x00, 0x00, 0x00, 0x04, 0x00, 0x0e, 0x00, 0x00, 0x00, 
    0x01, 0x00, 0x00, 0x00, 0x01, 0x00, 0x00, 0x00, 0x16, 0x00, 0x00, 0x00, 
    0x04, 0x00, 0x00, 0x00, 0x15, 0x00, 0x00, 0x00, 0x01, 0x00, 0x00, 0x00, 
    0x02, 0x00, 0x00, 0x00, 0x02, 0x00, 0x00, 0x00, 0x86, 0xff, 0xff, 0xff, 
    0x1c, 0x00, 0x00, 0x00, 0x00, 0x00, 0x00, 0x37, 0x1c, 0x00, 0x00, 0x00, 
    0x20, 0x00, 0x00, 0x00, 0x02, 0x00, 0x00, 0x00, 0x00, 0x00, 0x06, 0x00, 
    0x08, 0x00, 0x07, 0x00, 0x06, 0x00, 0x00, 0x00, 0x00, 0x00, 0x00, 0x02, 
    0x01, 0x00, 0x00, 0x00, 0x15, 0x00, 0x00, 0x00, 0x01, 0x00, 0x00, 0x00, 
    0x14, 0x00, 0x00, 0x00, 0xbe, 0xff, 0xff, 0xff, 0x14, 0x00, 0x00, 0x00, 
    0x00, 0x00, 0x00, 0x01, 0x1c, 0x00, 0x00, 0x00, 0x20, 0x00, 0x00, 0x00, 
    0x01, 0x00, 0x00, 0x00, 0xb0, 0xff, 0xff, 0xff, 0x00, 0x00, 0x00, 0x01, 
    0x02, 0x00, 0x00, 0x00, 0x02, 0x00, 0x00, 0x00, 0x01, 0x00, 0x00, 0x00, 
    0x14, 0x00, 0x00, 0x00, 0x03, 0x00, 0x00, 0x00, 0x13, 0x00, 0x00, 0x00, 
    0x0f, 0x00, 0x00, 0x00, 0x0e, 0x00, 0x00, 0x00, 0x00, 0x00, 0x0e, 0x00, 
    0x18, 0x00, 0x14, 0x00, 0x10, 0x00, 0x0c, 0x00, 0x0b, 0x00, 0x04, 0x00, 
    0x0e, 0x00, 0x00, 0x00, 0x20, 0x00, 0x00, 0x00, 0x00, 0x00, 0x00, 0x01, 
    0x28, 0x00, 0x00, 0x00, 0x2c, 0x00, 0x00, 0x00, 0x01, 0x00, 0x00, 0x00, 
    0x0c, 0x00, 0x10, 0x00, 0x00, 0x00, 0x0c, 0x00, 0x08, 0x00, 0x07, 0x00, 
    0x0c, 0x00, 0x00, 0x00, 0x00, 0x00, 0x00, 0x01, 0x02, 0x00, 0x00, 0x00, 
    0x02, 0x00, 0x00, 0x00, 0x01, 0x00, 0x00, 0x00, 0x13, 0x00, 0x00, 0x00, 
    0x03, 0x00, 0x00, 0x00, 0x12, 0x00, 0x00, 0x00, 0x11, 0x00, 0x00, 0x00, 
    0x10, 0x00, 0x00, 0x00, 0x00, 0x00, 0x0a, 0x00, 0x0c, 0x00, 0x00, 0x00, 
    0x08, 0x00, 0x04, 0x00, 0x0a, 0x00, 0x00, 0x00, 0x08, 0x00, 0x00, 0x00, 
    0x0c, 0x00, 0x00, 0x00, 0x01, 0x00, 0x00, 0x00, 0x12, 0x00, 0x00, 0x00, 
    0x01, 0x00, 0x00, 0x00, 0x00, 0x00, 0x00, 0x00, 0x01, 0x00, 0x00, 0x00, 
    0x21, 0x00, 0x00, 0x00, 0x01, 0x00, 0x00, 0x00, 0x00, 0x00, 0x00, 0x00, 
    0x22, 0x00, 0x00, 0x00, 0xb8, 0x19, 0x00, 0x00, 0x38, 0x19, 0x00, 0x00, 
    0xb8, 0x18, 0x00, 0x00, 0x60, 0x18, 0x00, 0x00, 0x08, 0x18, 0x00, 0x00, 
    0xb0, 0x17, 0x00, 0x00, 0x58, 0x17, 0x00, 0x00, 0x00, 0x17, 0x00, 0x00, 
    0x6c, 0x16, 0x00, 0x00, 0xdc, 0x15, 0x00, 0x00, 0xe0, 0x13, 0x00, 0x00, 
    0xdc, 0x11, 0x00, 0x00, 0xa0, 0x10, 0x00, 0x00, 0x5c, 0x0f, 0x00, 0x00, 
    0x28, 0x0e, 0x00, 0x00, 0xfc, 0x0c, 0x00, 0x00, 0x08, 0x0b, 0x00, 0x00, 
    0x1c, 0x09, 0x00, 0x00, 0x98, 0x08, 0x00, 0x00, 0x84, 0x07, 0x00, 0x00, 
    0x88, 0x06, 0x00, 0x00, 0x30, 0x06, 0x00, 0x00, 0xd4, 0x05, 0x00, 0x00, 
    0x7c, 0x05, 0x00, 0x00, 0x48, 0x04, 0x00, 0x00, 0xf0, 0x03, 0x00, 0x00, 
    0x94, 0x03, 0x00, 0x00, 0x3c, 0x03, 0x00, 0x00, 0x08, 0x02, 0x00, 0x00, 
    0xb0, 0x01, 0x00, 0x00, 0x54, 0x01, 0x00, 0x00, 0xfc, 0x00, 0x00, 0x00, 
    0x70, 0x00, 0x00, 0x00, 0x04, 0x00, 0x00, 0x00, 0xe6, 0xe6, 0xff, 0xff, 
    0x00, 0x00, 0x00, 0x01, 0x14, 0x00, 0x00, 0x00, 0x24, 0x00, 0x00, 0x00, 
    0x24, 0x00, 0x00, 0x00, 0x22, 0x00, 0x00, 0x00, 0x3c, 0x00, 0x00, 0x00, 
    0x04, 0x00, 0x00, 0x00, 0xff, 0xff, 0xff, 0xff, 0x04, 0x00, 0x00, 0x00, 
    0x04, 0x00, 0x00, 0x00, 0x01, 0x00, 0x00, 0x00, 0xd0, 0xe6, 0xff, 0xff, 
    0x19, 0x00, 0x00, 0x00, 0x53, 0x74, 0x61, 0x74, 0x65, 0x66, 0x75, 0x6c, 
    0x50, 0x61, 0x72, 0x74, 0x69, 0x74, 0x69, 0x6f, 0x6e, 0x65, 0x64, 0x43, 
    0x61, 0x6c, 0x6c, 0x3a, 0x30, 0x00, 0x00, 0x00, 0x04, 0x00, 0x00, 0x00, 
    0x01, 0x00, 0x00, 0x00, 0x04, 0x00, 0x00, 0x00, 0x04, 0x00, 0x00, 0x00, 
    0x01, 0x00, 0x00, 0x00, 0x26, 0xf8, 0xff, 0xff, 0x00, 0x00, 0x00, 0x01, 
    0x18, 0x00, 0x00, 0x00, 0x28, 0x00, 0x00, 0x00, 0x44, 0x00, 0x00, 0x00, 
    0x21, 0x00, 0x00, 0x00, 0x00, 0x00, 0x00, 0x09, 0x58, 0x00, 0x00, 0x00, 
    0x04, 0x00, 0x00, 0x00, 0xff, 0xff, 0xff, 0xff, 0x04, 0x00, 0x00, 0x00, 
    0x04, 0x00, 0x00, 0x00, 0x01, 0x00, 0x00, 0x00, 0x7c, 0xea, 0xff, 0xff, 
    0x08, 0x00, 0x00, 0x00, 0x10, 0x00, 0x00, 0x00, 0x01, 0x00, 0x00, 0x00, 
    0xaf, 0xff, 0xff, 0xff, 0xff, 0xff, 0xff, 0xff, 0x01, 0x00, 0x00, 0x00, 
    0x6a, 0xa3, 0x0f, 0x3d, 0x1a, 0x00, 0x00, 0x00, 0x53, 0x74, 0x61, 0x74, 
    0x65, 0x66, 0x75, 0x6c, 0x50, 0x61, 0x72, 0x74, 0x69, 0x74, 0x69, 0x6f, 
    0x6e, 0x65, 0x64, 0x43, 0x61, 0x6c, 0x6c, 0x3a, 0x30, 0x31, 0x00, 0x00, 
    0x04, 0x00, 0x00, 0x00, 0x01, 0x00, 0x00, 0x00, 0x04, 0x00, 0x00, 0x00, 
    0x04, 0x00, 0x00, 0x00, 0x01, 0x00, 0x00, 0x00, 0x52, 0xe8, 0xff, 0xff, 
    0x00, 0x00, 0x00, 0x01, 0x14, 0x00, 0x00, 0x00, 0x14, 0x00, 0x00, 0x00, 
    0x20, 0x00, 0x00, 0x00, 0x00, 0x00, 0x00, 0x02, 0x34, 0x00, 0x00, 0x00, 
    0xac, 0xe7, 0xff, 0xff, 0x27, 0x00, 0x00, 0x00, 0x73, 0x65, 0x71, 0x75, 
    0x65, 0x6e, 0x74, 0x69, 0x61, 0x6c, 0x5f, 0x33, 0x32, 0x2f, 0x63, 0x6f, 
    0x6e, 0x76, 0x32, 0x64, 0x5f, 0x74, 0x72, 0x61, 0x6e, 0x73, 0x70, 0x6f, 
    0x73, 0x65, 0x5f, 0x37, 0x37, 0x2f, 0x73, 0x74, 0x61, 0x63, 0x6b, 0x00, 
    0x01, 0x00, 0x00, 0x00, 0x04, 0x00, 0x00, 0x00, 0xa6, 0xe8, 0xff, 0xff, 
    0x00, 0x00, 0x00, 0x01, 0x14, 0x00, 0x00, 0x00, 0x14, 0x00, 0x00, 0x00, 
    0x1f, 0x00, 0x00, 0x00, 0x00, 0x00, 0x00, 0x02, 0x3c, 0x00, 0x00, 0x00, 
    0x00, 0xe8, 0xff, 0xff, 0x2f, 0x00, 0x00, 0x00, 0x73, 0x65, 0x71, 0x75, 
    0x65, 0x6e, 0x74, 0x69, 0x61, 0x6c, 0x5f, 0x33, 0x32, 0x2f, 0x63, 0x6f, 
    0x6e, 0x76, 0x32, 0x64, 0x5f, 0x74, 0x72, 0x61, 0x6e, 0x73, 0x70, 0x6f, 
    0x73, 0x65, 0x5f, 0x37, 0x37, 0x2f, 0x73, 0x74, 0x72, 0x69, 0x64, 0x65, 
    0x64, 0x5f, 0x73, 0x6c, 0x69, 0x63, 0x65, 0x00, 0x00, 0x00, 0x00, 0x00, 
    0xfe, 0xe8, 0xff, 0xff, 0x00, 0x00, 0x00, 0x01, 0x14, 0x00, 0x00, 0x00, 
    0x14, 0x00, 0x00, 0x00, 0x1e, 0x00, 0x00, 0x00, 0x00, 0x00, 0x00, 0x02, 
    0x34, 0x00, 0x00, 0x00, 0x58, 0xe8, 0xff, 0xff, 0x27, 0x00, 0x00, 0x00, 
    0x73, 0x65, 0x71, 0x75, 0x65, 0x6e, 0x74, 0x69, 0x61, 0x6c, 0x5f, 0x33, 
    0x32, 0x2f, 0x63, 0x6f, 0x6e, 0x76, 0x32, 0x64, 0x5f, 0x74, 0x72, 0x61, 
    0x6e, 0x73, 0x70, 0x6f, 0x73, 0x65, 0x5f, 0x37, 0x37, 0x2f, 0x53, 0x68, 
    0x61, 0x70, 0x65, 0x00, 0x01, 0x00, 0x00, 0x00, 0x04, 0x00, 0x00, 0x00, 
    0xae, 0xf9, 0xff, 0xff, 0x00, 0x00, 0x00, 0x01, 0x18, 0x00, 0x00, 0x00, 
    0x28, 0x00, 0x00, 0x00, 0x48, 0x00, 0x00, 0x00, 0x1d, 0x00, 0x00, 0x00, 
    0x00, 0x00, 0x00, 0x09, 0x00, 0x01, 0x00, 0x00, 0x04, 0x00, 0x00, 0x00, 
    0xff, 0xff, 0xff, 0xff, 0x04, 0x00, 0x00, 0x00, 0x04, 0x00, 0x00, 0x00, 
    0x20, 0x00, 0x00, 0x00, 0x04, 0xec, 0xff, 0xff, 0x08, 0x00, 0x00, 0x00, 
    0x14, 0x00, 0x00, 0x00, 0x01, 0x00, 0x00, 0x00, 0x80, 0xff, 0xff, 0xff, 
    0xff, 0xff, 0xff, 0xff, 0x00, 0x00, 0x00, 0x00, 0x01, 0x00, 0x00, 0x00, 
    0x68, 0x6a, 0x20, 0x3c, 0xbc, 0x00, 0x00, 0x00, 0x73, 0x65, 0x71, 0x75, 
    0x65, 0x6e, 0x74, 0x69, 0x61, 0x6c, 0x5f, 0x33, 0x32, 0x2f, 0x63, 0x6f, 
    0x6e, 0x76, 0x32, 0x64, 0x5f, 0x74, 0x72, 0x61, 0x6e, 0x73, 0x70, 0x6f, 
    0x73, 0x65, 0x5f, 0x37, 0x36, 0x2f, 0x52, 0x65, 0x6c, 0x75, 0x3b, 0x73, 
    0x65, 0x71, 0x75, 0x65, 0x6e, 0x74, 0x69, 0x61, 0x6c, 0x5f, 0x33, 0x32, 
    0x2f, 0x63, 0x6f, 0x6e, 0x76, 0x32, 0x64, 0x5f, 0x74, 0x72, 0x61, 0x6e, 
    0x73, 0x70, 0x6f, 0x73, 0x65, 0x5f, 0x37, 0x36, 0x2f, 0x42, 0x69, 0x61, 
    0x73, 0x41, 0x64, 0x64, 0x3b, 0x73, 0x65, 0x71, 0x75, 0x65, 0x6e, 0x74, 
    0x69, 0x61, 0x6c, 0x5f, 0x33, 0x32, 0x2f, 0x63, 0x6f, 0x6e, 0x76, 0x32, 
    0x64, 0x5f, 0x74, 0x72, 0x61, 0x6e, 0x73, 0x70, 0x6f, 0x73, 0x65, 0x5f, 
    0x37, 0x36, 0x2f, 0x63, 0x6f, 0x6e, 0x76, 0x32, 0x64, 0x5f, 0x74, 0x72, 
    0x61, 0x6e, 0x73, 0x70, 0x6f, 0x73, 0x65, 0x3b, 0x73, 0x65, 0x71, 0x75, 
    0x65, 0x6e, 0x74, 0x69, 0x61, 0x6c, 0x5f, 0x33, 0x32, 0x2f, 0x63, 0x6f, 
    0x6e, 0x76, 0x32, 0x64, 0x5f, 0x74, 0x72, 0x61, 0x6e, 0x73, 0x70, 0x6f, 
    0x73, 0x65, 0x5f, 0x37, 0x36, 0x2f, 0x42, 0x69, 0x61, 0x73, 0x41, 0x64, 
    0x64, 0x2f, 0x52, 0x65, 0x61, 0x64, 0x56, 0x61, 0x72, 0x69, 0x61, 0x62, 
    0x6c, 0x65, 0x4f, 0x70, 0x00, 0x00, 0x00, 0x00, 0x04, 0x00, 0x00, 0x00, 
    0x01, 0x00, 0x00, 0x00, 0x04, 0x00, 0x00, 0x00, 0x04, 0x00, 0x00, 0x00, 
    0x20, 0x00, 0x00, 0x00, 0x82, 0xea, 0xff, 0xff, 0x00, 0x00, 0x00, 0x01, 
    0x14, 0x00, 0x00, 0x00, 0x14, 0x00, 0x00, 0x00, 0x1c, 0x00, 0x00, 0x00, 
    0x00, 0x00, 0x00, 0x02, 0x34, 0x00, 0x00, 0x00, 0xdc, 0xe9, 0xff, 0xff, 
    0x27, 0x00, 0x00, 0x00, 0x73, 0x65, 0x71, 0x75, 0x65, 0x6e, 0x74, 0x69, 
    0x61, 0x6c, 0x5f, 0x33, 0x32, 0x2f, 0x63, 0x6f, 0x6e, 0x76, 0x32, 0x64, 
    0x5f, 0x74, 0x72, 0x61, 0x6e, 0x73, 0x70, 0x6f, 0x73, 0x65, 0x5f, 0x37, 
    0x36, 0x2f, 0x73, 0x74, 0x61, 0x63, 0x6b, 0x00, 0x01, 0x00, 0x00, 0x00, 
    0x04, 0x00, 0x00, 0x00, 0xd6, 0xea, 0xff, 0xff, 0x00, 0x00, 0x00, 0x01, 
    0x14, 0x00, 0x00, 0x00, 0x14, 0x00, 0x00, 0x00, 0x1b, 0x00, 0x00, 0x00, 
    0x00, 0x00, 0x00, 0x02, 0x3c, 0x00, 0x00, 0x00, 0x30, 0xea, 0xff, 0xff, 
    0x2f, 0x00, 0x00, 0x00, 0x73, 0x65, 0x71, 0x75, 0x65, 0x6e, 0x74, 0x69, 
    0x61, 0x6c, 0x5f, 0x33, 0x32, 0x2f, 0x63, 0x6f, 0x6e, 0x76, 0x32, 0x64, 
    0x5f, 0x74, 0x72, 0x61, 0x6e, 0x73, 0x70, 0x6f, 0x73, 0x65, 0x5f, 0x37, 
    0x36, 0x2f, 0x73, 0x74, 0x72, 0x69, 0x64, 0x65, 0x64, 0x5f, 0x73, 0x6c, 
    0x69, 0x63, 0x65, 0x00, 0x00, 0x00, 0x00, 0x00, 0x2e, 0xeb, 0xff, 0xff, 
    0x00, 0x00, 0x00, 0x01, 0x14, 0x00, 0x00, 0x00, 0x14, 0x00, 0x00, 0x00, 
    0x1a, 0x00, 0x00, 0x00, 0x00, 0x00, 0x00, 0x02, 0x34, 0x00, 0x00, 0x00, 
    0x88, 0xea, 0xff, 0xff, 0x27, 0x00, 0x00, 0x00, 0x73, 0x65, 0x71, 0x75, 
    0x65, 0x6e, 0x74, 0x69, 0x61, 0x6c, 0x5f, 0x33, 0x32, 0x2f, 0x63, 0x6f, 
    0x6e, 0x76, 0x32, 0x64, 0x5f, 0x74, 0x72, 0x61, 0x6e, 0x73, 0x70, 0x6f, 
    0x73, 0x65, 0x5f, 0x37, 0x36, 0x2f, 0x53, 0x68, 0x61, 0x70, 0x65, 0x00, 
    0x01, 0x00, 0x00, 0x00, 0x04, 0x00, 0x00, 0x00, 0xde, 0xfb, 0xff, 0xff, 
    0x00, 0x00, 0x00, 0x01, 0x18, 0x00, 0x00, 0x00, 0x28, 0x00, 0x00, 0x00, 
    0x48, 0x00, 0x00, 0x00, 0x19, 0x00, 0x00, 0x00, 0x00, 0x00, 0x00, 0x09, 
    0x00, 0x01, 0x00, 0x00, 0x04, 0x00, 0x00, 0x00, 0xff, 0xff, 0xff, 0xff, 
    0x02, 0x00, 0x00, 0x00, 0x02, 0x00, 0x00, 0x00, 0x10, 0x00, 0x00, 0x00, 
    0x34, 0xee, 0xff, 0xff, 0x08, 0x00, 0x00, 0x00, 0x14, 0x00, 0x00, 0x00, 
    0x01, 0x00, 0x00, 0x00, 0x80, 0xff, 0xff, 0xff, 0xff, 0xff, 0xff, 0xff, 
    0x00, 0x00, 0x00, 0x00, 0x01, 0x00, 0x00, 0x00, 0x87, 0x91, 0xfc, 0x3b, 
    0xbc, 0x00, 0x00, 0x00, 0x73, 0x65, 0x71, 0x75, 0x65, 0x6e, 0x74, 0x69, 
    0x61, 0x6c, 0x5f, 0x33, 0x32, 0x2f, 0x63, 0x6f, 0x6e, 0x76, 0x32, 0x64, 
    0x5f, 0x74, 0x72, 0x61, 0x6e, 0x73, 0x70, 0x6f, 0x73, 0x65, 0x5f, 0x37, 
    0x35, 0x2f, 0x52, 0x65, 0x6c, 0x75, 0x3b, 0x73, 0x65, 0x71, 0x75, 0x65, 
    0x6e, 0x74, 0x69, 0x61, 0x6c, 0x5f, 0x33, 0x32, 0x2f, 0x63, 0x6f, 0x6e, 
    0x76, 0x32, 0x64, 0x5f, 0x74, 0x72, 0x61, 0x6e, 0x73, 0x70, 0x6f, 0x73, 
    0x65, 0x5f, 0x37, 0x35, 0x2f, 0x42, 0x69, 0x61, 0x73, 0x41, 0x64, 0x64, 
    0x3b, 0x73, 0x65, 0x71, 0x75, 0x65, 0x6e, 0x74, 0x69, 0x61, 0x6c, 0x5f, 
    0x33, 0x32, 0x2f, 0x63, 0x6f, 0x6e, 0x76, 0x32, 0x64, 0x5f, 0x74, 0x72, 
    0x61, 0x6e, 0x73, 0x70, 0x6f, 0x73, 0x65, 0x5f, 0x37, 0x35, 0x2f, 0x63, 
    0x6f, 0x6e, 0x76, 0x32, 0x64, 0x5f, 0x74, 0x72, 0x61, 0x6e, 0x73, 0x70, 
    0x6f, 0x73, 0x65, 0x3b, 0x73, 0x65, 0x71, 0x75, 0x65, 0x6e, 0x74, 0x69, 
    0x61, 0x6c, 0x5f, 0x33, 0x32, 0x2f, 0x63, 0x6f, 0x6e, 0x76, 0x32, 0x64, 
    0x5f, 0x74, 0x72, 0x61, 0x6e, 0x73, 0x70, 0x6f, 0x73, 0x65, 0x5f, 0x37, 
    0x35, 0x2f, 0x42, 0x69, 0x61, 0x73, 0x41, 0x64, 0x64, 0x2f, 0x52, 0x65, 
    0x61, 0x64, 0x56, 0x61, 0x72, 0x69, 0x61, 0x62, 0x6c, 0x65, 0x4f, 0x70, 
    0x00, 0x00, 0x00, 0x00, 0x04, 0x00, 0x00, 0x00, 0x01, 0x00, 0x00, 0x00, 
    0x02, 0x00, 0x00, 0x00, 0x02, 0x00, 0x00, 0x00, 0x10, 0x00, 0x00, 0x00, 
    0xb2, 0xec, 0xff, 0xff, 0x00, 0x00, 0x00, 0x01, 0x14, 0x00, 0x00, 0x00, 
    0x14, 0x00, 0x00, 0x00, 0x18, 0x00, 0x00, 0x00, 0x00, 0x00, 0x00, 0x02, 
    0x34, 0x00, 0x00, 0x00, 0x0c, 0xec, 0xff, 0xff, 0x27, 0x00, 0x00, 0x00, 
    0x73, 0x65, 0x71, 0x75, 0x65, 0x6e, 0x74, 0x69, 0x61, 0x6c, 0x5f, 0x33, 
    0x32, 0x2f, 0x63, 0x6f, 0x6e, 0x76, 0x32, 0x64, 0x5f, 0x74, 0x72, 0x61, 
    0x6e, 0x73, 0x70, 0x6f, 0x73, 0x65, 0x5f, 0x37, 0x35, 0x2f, 0x73, 0x74, 
    0x61, 0x63, 0x6b, 0x00, 0x01, 0x00, 0x00, 0x00, 0x04, 0x00, 0x00, 0x00, 
    0x06, 0xed, 0xff, 0xff, 0x00, 0x00, 0x00, 0x01, 0x14, 0x00, 0x00, 0x00, 
    0x14, 0x00, 0x00, 0x00, 0x17, 0x00, 0x00, 0x00, 0x00, 0x00, 0x00, 0x02, 
    0x3c, 0x00, 0x00, 0x00, 0x60, 0xec, 0xff, 0xff, 0x2f, 0x00, 0x00, 0x00, 
    0x73, 0x65, 0x71, 0x75, 0x65, 0x6e, 0x74, 0x69, 0x61, 0x6c, 0x5f, 0x33, 
    0x32, 0x2f, 0x63, 0x6f, 0x6e, 0x76, 0x32, 0x64, 0x5f, 0x74, 0x72, 0x61, 
    0x6e, 0x73, 0x70, 0x6f, 0x73, 0x65, 0x5f, 0x37, 0x35, 0x2f, 0x73, 0x74, 
    0x72, 0x69, 0x64, 0x65, 0x64, 0x5f, 0x73, 0x6c, 0x69, 0x63, 0x65, 0x00, 
    0x00, 0x00, 0x00, 0x00, 0x5e, 0xed, 0xff, 0xff, 0x00, 0x00, 0x00, 0x01, 
    0x14, 0x00, 0x00, 0x00, 0x14, 0x00, 0x00, 0x00, 0x16, 0x00, 0x00, 0x00, 
    0x00, 0x00, 0x00, 0x02, 0x34, 0x00, 0x00, 0x00, 0xb8, 0xec, 0xff, 0xff, 
    0x27, 0x00, 0x00, 0x00, 0x73, 0x65, 0x71, 0x75, 0x65, 0x6e, 0x74, 0x69, 
    0x61, 0x6c, 0x5f, 0x33, 0x32, 0x2f, 0x63, 0x6f, 0x6e, 0x76, 0x32, 0x64, 
    0x5f, 0x74, 0x72, 0x61, 0x6e, 0x73, 0x70, 0x6f, 0x73, 0x65, 0x5f, 0x37, 
    0x35, 0x2f, 0x53, 0x68, 0x61, 0x70, 0x65, 0x00, 0x01, 0x00, 0x00, 0x00, 
    0x04, 0x00, 0x00, 0x00, 0x0e, 0xfe, 0xff, 0xff, 0x00, 0x00, 0x00, 0x01, 
    0x18, 0x00, 0x00, 0x00, 0x28, 0x00, 0x00, 0x00, 0x44, 0x00, 0x00, 0x00, 
    0x15, 0x00, 0x00, 0x00, 0x00, 0x00, 0x00, 0x09, 0xc8, 0x00, 0x00, 0x00, 
    0x04, 0x00, 0x00, 0x00, 0xff, 0xff, 0xff, 0xff, 0x01, 0x00, 0x00, 0x00, 
    0x01, 0x00, 0x00, 0x00, 0x10, 0x00, 0x00, 0x00, 0x64, 0xf0, 0xff, 0xff, 
    0x08, 0x00, 0x00, 0x00, 0x10, 0x00, 0x00, 0x00, 0x01, 0x00, 0x00, 0x00, 
    0x80, 0xff, 0xff, 0xff, 0xff, 0xff, 0xff, 0xff, 0x01, 0x00, 0x00, 0x00, 
    0x37, 0x6d, 0x14, 0x3c, 0x8a, 0x00, 0x00, 0x00, 0x73, 0x65, 0x71, 0x75, 
    0x65, 0x6e, 0x74, 0x69, 0x61, 0x6c, 0x5f, 0x33, 0x32, 0x2f, 0x63, 0x6f, 
    0x6e, 0x76, 0x32, 0x64, 0x5f, 0x35, 0x31, 0x2f, 0x52, 0x65, 0x6c, 0x75, 
    0x3b, 0x73, 0x65, 0x71, 0x75, 0x65, 0x6e, 0x74, 0x69, 0x61, 0x6c, 0x5f, 
    0x33, 0x32, 0x2f, 0x63, 0x6f, 0x6e, 0x76, 0x32, 0x64, 0x5f, 0x35, 0x31, 
    0x2f, 0x42, 0x69, 0x61, 0x73, 0x41, 0x64, 0x64, 0x3b, 0x73, 0x65, 0x71, 
    0x75, 0x65, 0x6e, 0x74, 0x69, 0x61, 0x6c, 0x5f, 0x33, 0x32, 0x2f, 0x63, 
    0x6f, 0x6e, 0x76, 0x32, 0x64, 0x5f, 0x35, 0x31, 0x2f, 0x43, 0x6f, 0x6e, 
    0x76, 0x32, 0x44, 0x3b, 0x73, 0x65, 0x71, 0x75, 0x65, 0x6e, 0x74, 0x69, 
    0x61, 0x6c, 0x5f, 0x33, 0x32, 0x2f, 0x63, 0x6f, 0x6e, 0x76, 0x32, 0x64, 
    0x5f, 0x35, 0x31, 0x2f, 0x42, 0x69, 0x61, 0x73, 0x41, 0x64, 0x64, 0x2f, 
    0x52, 0x65, 0x61, 0x64, 0x56, 0x61, 0x72, 0x69, 0x61, 0x62, 0x6c, 0x65, 
    0x4f, 0x70, 0x00, 0x00, 0x04, 0x00, 0x00, 0x00, 0x01, 0x00, 0x00, 0x00, 
    0x01, 0x00, 0x00, 0x00, 0x01, 0x00, 0x00, 0x00, 0x10, 0x00, 0x00, 0x00, 
    0x06, 0xff, 0xff, 0xff, 0x00, 0x00, 0x00, 0x01, 0x18, 0x00, 0x00, 0x00, 
    0x28, 0x00, 0x00, 0x00, 0x44, 0x00, 0x00, 0x00, 0x14, 0x00, 0x00, 0x00, 
    0x00, 0x00, 0x00, 0x09, 0xc8, 0x00, 0x00, 0x00, 0x04, 0x00, 0x00, 0x00, 
    0xff, 0xff, 0xff, 0xff, 0x01, 0x00, 0x00, 0x00, 0x01, 0x00, 0x00, 0x00, 
    0x20, 0x00, 0x00, 0x00, 0x5c, 0xf1, 0xff, 0xff, 0x08, 0x00, 0x00, 0x00, 
    0x10, 0x00, 0x00, 0x00, 0x01, 0x00, 0x00, 0x00, 0x80, 0xff, 0xff, 0xff, 
    0xff, 0xff, 0xff, 0xff, 0x01, 0x00, 0x00, 0x00, 0xa5, 0x40, 0xfb, 0x3b, 
    0x8a, 0x00, 0x00, 0x00, 0x73, 0x65, 0x71, 0x75, 0x65, 0x6e, 0x74, 0x69, 
    0x61, 0x6c, 0x5f, 0x33, 0x32, 0x2f, 0x63, 0x6f, 0x6e, 0x76, 0x32, 0x64, 
    0x5f, 0x35, 0x30, 0x2f, 0x52, 0x65, 0x6c, 0x75, 0x3b, 0x73, 0x65, 0x71, 
    0x75, 0x65, 0x6e, 0x74, 0x69, 0x61, 0x6c, 0x5f, 0x33, 0x32, 0x2f, 0x63, 
    0x6f, 0x6e, 0x76, 0x32, 0x64, 0x5f, 0x35, 0x30, 0x2f, 0x42, 0x69, 0x61, 
    0x73, 0x41, 0x64, 0x64, 0x3b, 0x73, 0x65, 0x71, 0x75, 0x65, 0x6e, 0x74, 
    0x69, 0x61, 0x6c, 0x5f, 0x33, 0x32, 0x2f, 0x63, 0x6f, 0x6e, 0x76, 0x32, 
    0x64, 0x5f, 0x35, 0x30, 0x2f, 0x43, 0x6f, 0x6e, 0x76, 0x32, 0x44, 0x3b, 
    0x73, 0x65, 0x71, 0x75, 0x65, 0x6e, 0x74, 0x69, 0x61, 0x6c, 0x5f, 0x33, 
    0x32, 0x2f, 0x63, 0x6f, 0x6e, 0x76, 0x32, 0x64, 0x5f, 0x35, 0x30, 0x2f, 
    0x42, 0x69, 0x61, 0x73, 0x41, 0x64, 0x64, 0x2f, 0x52, 0x65, 0x61, 0x64, 
    0x56, 0x61, 0x72, 0x69, 0x61, 0x62, 0x6c, 0x65, 0x4f, 0x70, 0x00, 0x00, 
    0x04, 0x00, 0x00, 0x00, 0x01, 0x00, 0x00, 0x00, 0x01, 0x00, 0x00, 0x00, 
    0x01, 0x00, 0x00, 0x00, 0x20, 0x00, 0x00, 0x00, 0x00, 0x00, 0x16, 0x00, 
    0x20, 0x00, 0x1c, 0x00, 0x1b, 0x00, 0x14, 0x00, 0x10, 0x00, 0x0c, 0x00, 
    0x00, 0x00, 0x00, 0x00, 0x08, 0x00, 0x07, 0x00, 0x16, 0x00, 0x00, 0x00, 
    0x00, 0x00, 0x00, 0x01, 0x18, 0x00, 0x00, 0x00, 0x28, 0x00, 0x00, 0x00, 
    0x48, 0x00, 0x00, 0x00, 0x13, 0x00, 0x00, 0x00, 0x00, 0x00, 0x00, 0x09, 
    0x50, 0x00, 0x00, 0x00, 0x04, 0x00, 0x00, 0x00, 0xff, 0xff, 0xff, 0xff, 
    0x01, 0x00, 0x00, 0x00, 0x01, 0x00, 0x00, 0x00, 0x01, 0x00, 0x00, 0x00, 
    0x6c, 0xf2, 0xff, 0xff, 0x08, 0x00, 0x00, 0x00, 0x14, 0x00, 0x00, 0x00, 
    0x01, 0x00, 0x00, 0x00, 0xae, 0xff, 0xff, 0xff, 0xff, 0xff, 0xff, 0xff, 
    0x00, 0x00, 0x00, 0x00, 0x01, 0x00, 0x00, 0x00, 0x82, 0x07, 0x1a, 0x3d, 
    0x0c, 0x00, 0x00, 0x00, 0x74, 0x66, 0x6c, 0x2e, 0x71, 0x75, 0x61, 0x6e, 
    0x74, 0x69, 0x7a, 0x65, 0x00, 0x00, 0x00, 0x00, 0x04, 0x00, 0x00, 0x00, 
    0x01, 0x00, 0x00, 0x00, 0x01, 0x00, 0x00, 0x00, 0x01, 0x00, 0x00, 0x00, 
    0x01, 0x00, 0x00, 0x00, 0x3a, 0xf0, 0xff, 0xff, 0x00, 0x00, 0x00, 0x01, 
    0x14, 0x00, 0x00, 0x00, 0xa4, 0x01, 0x00, 0x00, 0x12, 0x00, 0x00, 0x00, 
    0x00, 0x00, 0x00, 0x09, 0xbc, 0x01, 0x00, 0x00, 0xd4, 0xf2, 0xff, 0xff, 
    0x08, 0x00, 0x00, 0x00, 0x08, 0x01, 0x00, 0x00, 0x20, 0x00, 0x00, 0x00, 
    0x00, 0x00, 0x00, 0x00, 0x00, 0x00, 0x00, 0x00, 0x00, 0x00, 0x00, 0x00, 
    0x00, 0x00, 0x00, 0x00, 0x00, 0x00, 0x00, 0x00, 0x00, 0x00, 0x00, 0x00, 
    0x00, 0x00, 0x00, 0x00, 0x00, 0x00, 0x00, 0x00, 0x00, 0x00, 0x00, 0x00, 
    0x00, 0x00, 0x00, 0x00, 0x00, 0x00, 0x00, 0x00, 0x00, 0x00, 0x00, 0x00, 
    0x00, 0x00, 0x00, 0x00, 0x00, 0x00, 0x00, 0x00, 0x00, 0x00, 0x00, 0x00, 
    0x00, 0x00, 0x00, 0x00, 0x00, 0x00, 0x00, 0x00, 0x00, 0x00, 0x00, 0x00, 
    0x00, 0x00, 0x00, 0x00, 0x00, 0x00, 0x00, 0x00, 0x00, 0x00, 0x00, 0x00, 
    0x00, 0x00, 0x00, 0x00, 0x00, 0x00, 0x00, 0x00, 0x00, 0x00, 0x00, 0x00, 
    0x00, 0x00, 0x00, 0x00, 0x00, 0x00, 0x00, 0x00, 0x00, 0x00, 0x00, 0x00, 
    0x00, 0x00, 0x00, 0x00, 0x00, 0x00, 0x00, 0x00, 0x00, 0x00, 0x00, 0x00, 
    0x00, 0x00, 0x00, 0x00, 0x00, 0x00, 0x00, 0x00, 0x00, 0x00, 0x00, 0x00, 
    0x00, 0x00, 0x00, 0x00, 0x00, 0x00, 0x00, 0x00, 0x00, 0x00, 0x00, 0x00, 
    0x00, 0x00, 0x00, 0x00, 0x00, 0x00, 0x00, 0x00, 0x00, 0x00, 0x00, 0x00, 
    0x00, 0x00, 0x00, 0x00, 0x00, 0x00, 0x00, 0x00, 0x00, 0x00, 0x00, 0x00, 
    0x00, 0x00, 0x00, 0x00, 0x00, 0x00, 0x00, 0x00, 0x00, 0x00, 0x00, 0x00, 
    0x00, 0x00, 0x00, 0x00, 0x00, 0x00, 0x00, 0x00, 0x00, 0x00, 0x00, 0x00, 
    0x00, 0x00, 0x00, 0x00, 0x00, 0x00, 0x00, 0x00, 0x00, 0x00, 0x00, 0x00, 
    0x00, 0x00, 0x00, 0x00, 0x00, 0x00, 0x00, 0x00, 0x00, 0x00, 0x00, 0x00, 
    0x00, 0x00, 0x00, 0x00, 0x00, 0x00, 0x00, 0x00, 0x00, 0x00, 0x00, 0x00, 
    0x00, 0x00, 0x00, 0x00, 0x00, 0x00, 0x00, 0x00, 0x00, 0x00, 0x00, 0x00, 
    0x00, 0x00, 0x00, 0x00, 0x00, 0x00, 0x00, 0x00, 0x00, 0x00, 0x00, 0x00, 
    0x00, 0x00, 0x00, 0x00, 0x20, 0x00, 0x00, 0x00, 0xe7, 0xc3, 0xb9, 0x3a, 
    0x34, 0x10, 0x8e, 0x3a, 0x4b, 0x8e, 0xce, 0x3a, 0x24, 0x15, 0xc3, 0x3a, 
    0x38, 0x0f, 0xcc, 0x3a, 0x9e, 0x9a, 0xb6, 0x3a, 0xb6, 0x36, 0x9c, 0x3a, 
    0x46, 0x12, 0xa9, 0x3a, 0xa7, 0x1f, 0x93, 0x3a, 0xbb, 0x3b, 0x76, 0x3a, 
    0x81, 0xc3, 0xe1, 0x3a, 0x9a, 0x70, 0xc1, 0x3a, 0x94, 0xf4, 0xd4, 0x3a, 
    0x2a, 0x0e, 0x8b, 0x3a, 0xd0, 0x9d, 0x02, 0x3b, 0xb2, 0x03, 0xd2, 0x3a, 
    0x81, 0xe7, 0xbe, 0x3a, 0xb1, 0x2e, 0xbf, 0x3a, 0xa6, 0x3e, 0xa0, 0x3a, 
    0x9a, 0x8c, 0xdf, 0x3a, 0x50, 0x23, 0xb8, 0x3a, 0x89, 0x80, 0xbd, 0x3a, 
    0xcd, 0x47, 0xcb, 0x3a, 0x33, 0xe7, 0xf2, 0x3a, 0x51, 0x62, 0xb1, 0x3a, 
    0xab, 0xc1, 0xe4, 0x3a, 0xde, 0x4d, 0xe8, 0x3a, 0x3e, 0x7e, 0xdf, 0x3a, 
    0x8d, 0xac, 0xde, 0x3a, 0x42, 0x17, 0x97, 0x3a, 0x52, 0x1d, 0xeb, 0x3a, 
    0x7e, 0x86, 0xa9, 0x3a, 0x1e, 0x00, 0x00, 0x00, 0x73, 0x65, 0x71, 0x75, 
    0x65, 0x6e, 0x74, 0x69, 0x61, 0x6c, 0x5f, 0x33, 0x32, 0x2f, 0x63, 0x6f, 
    0x6e, 0x76, 0x32, 0x64, 0x5f, 0x35, 0x30, 0x2f, 0x43, 0x6f, 0x6e, 0x76, 
    0x32, 0x44, 0x00, 0x00, 0x04, 0x00, 0x00, 0x00, 0x20, 0x00, 0x00, 0x00, 
    0x07, 0x00, 0x00, 0x00, 0x01, 0x00, 0x00, 0x00, 0x01, 0x00, 0x00, 0x00, 
    0x22, 0xf2, 0xff, 0xff, 0x00, 0x00, 0x00, 0x01, 0x14, 0x00, 0x00, 0x00, 
    0xa8, 0x01, 0x00, 0x00, 0x11, 0x00, 0x00, 0x00, 0x00, 0x00, 0x00, 0x02, 
    0xd0, 0x01, 0x00, 0x00, 0xbc, 0xf4, 0xff, 0xff, 0x08, 0x00, 0x00, 0x00, 
    0x0c, 0x01, 0x00, 0x00, 0x20, 0x00, 0x00, 0x00, 0x00, 0x00, 0x00, 0x00, 
    0x00, 0x00, 0x00, 0x00, 0x00, 0x00, 0x00, 0x00, 0x00, 0x00, 0x00, 0x00, 
    0x00, 0x00, 0x00, 0x00, 0x00, 0x00, 0x00, 0x00, 0x00, 0x00, 0x00, 0x00, 
    0x00, 0x00, 0x00, 0x00, 0x00, 0x00, 0x00, 0x00, 0x00, 0x00, 0x00, 0x00, 
    0x00, 0x00, 0x00, 0x00, 0x00, 0x00, 0x00, 0x00, 0x00, 0x00, 0x00, 0x00, 
    0x00, 0x00, 0x00, 0x00, 0x00, 0x00, 0x00, 0x00, 0x00, 0x00, 0x00, 0x00, 
    0x00, 0x00, 0x00, 0x00, 0x00, 0x00, 0x00, 0x00, 0x00, 0x00, 0x00, 0x00, 
    0x00, 0x00, 0x00, 0x00, 0x00, 0x00, 0x00, 0x00, 0x00, 0x00, 0x00, 0x00, 
    0x00, 0x00, 0x00, 0x00, 0x00, 0x00, 0x00, 0x00, 0x00, 0x00, 0x00, 0x00, 
    0x00, 0x00, 0x00, 0x00, 0x00, 0x00, 0x00, 0x00, 0x00, 0x00, 0x00, 0x00, 
    0x00, 0x00, 0x00, 0x00, 0x00, 0x00, 0x00, 0x00, 0x00, 0x00, 0x00, 0x00, 
    0x00, 0x00, 0x00, 0x00, 0x00, 0x00, 0x00, 0x00, 0x00, 0x00, 0x00, 0x00, 
    0x00, 0x00, 0x00, 0x00, 0x00, 0x00, 0x00, 0x00, 0x00, 0x00, 0x00, 0x00, 
    0x00, 0x00, 0x00, 0x00, 0x00, 0x00, 0x00, 0x00, 0x00, 0x00, 0x00, 0x00, 
    0x00, 0x00, 0x00, 0x00, 0x00, 0x00, 0x00, 0x00, 0x00, 0x00, 0x00, 0x00, 
    0x00, 0x00, 0x00, 0x00, 0x00, 0x00, 0x00, 0x00, 0x00, 0x00, 0x00, 0x00, 
    0x00, 0x00, 0x00, 0x00, 0x00, 0x00, 0x00, 0x00, 0x00, 0x00, 0x00, 0x00, 
    0x00, 0x00, 0x00, 0x00, 0x00, 0x00, 0x00, 0x00, 0x00, 0x00, 0x00, 0x00, 
    0x00, 0x00, 0x00, 0x00, 0x00, 0x00, 0x00, 0x00, 0x00, 0x00, 0x00, 0x00, 
    0x00, 0x00, 0x00, 0x00, 0x00, 0x00, 0x00, 0x00, 0x00, 0x00, 0x00, 0x00, 
    0x00, 0x00, 0x00, 0x00, 0x00, 0x00, 0x00, 0x00, 0x00, 0x00, 0x00, 0x00, 
    0x00, 0x00, 0x00, 0x00, 0x00, 0x00, 0x00, 0x00, 0x00, 0x00, 0x00, 0x00, 
    0x00, 0x00, 0x00, 0x00, 0x20, 0x00, 0x00, 0x00, 0x97, 0x8a, 0x5f, 0x38, 
    0xd4, 0xf3, 0x2a, 0x38, 0x50, 0x8f, 0x78, 0x38, 0xe1, 0xc0, 0x6a, 0x38, 
    0x47, 0x8e, 0x75, 0x38, 0xbc, 0xbc, 0x5b, 0x38, 0xfd, 0xfa, 0x3b, 0x38, 
    0xe7, 0x73, 0x4b, 0x38, 0xb6, 0x0a, 0x31, 0x38, 0x27, 0x27, 0x14, 0x38, 
    0x3b, 0xd6, 0x87, 0x38, 0xd2, 0xc6, 0x68, 0x38, 0x60, 0x21, 0x80, 0x38, 
    0x33, 0x55, 0x27, 0x38, 0x88, 0x2d, 0x9d, 0x38, 0xc4, 0xb8, 0x7c, 0x38, 
    0xba, 0xb9, 0x65, 0x38, 0x64, 0x0f, 0x66, 0x38, 0xc6, 0xd4, 0x40, 0x38, 
    0x23, 0x81, 0x86, 0x38, 0x49, 0x95, 0x5d, 0x38, 0xc2, 0x09, 0x64, 0x38, 
    0x4f, 0x9e, 0x74, 0x38, 0x34, 0x26, 0x92, 0x38, 0xb1, 0x74, 0x55, 0x38, 
    0x36, 0xa3, 0x89, 0x38, 0xa8, 0xc5, 0x8b, 0x38, 0x7f, 0x78, 0x86, 0x38, 
    0x55, 0xfa, 0x85, 0x38, 0xd8, 0xd0, 0x35, 0x38, 0x89, 0x76, 0x8d, 0x38, 
    0xc1, 0xff, 0x4b, 0x38, 0x2e, 0x00, 0x00, 0x00, 0x73, 0x65, 0x71, 0x75, 
    0x65, 0x6e, 0x74, 0x69, 0x61, 0x6c, 0x5f, 0x33, 0x32, 0x2f, 0x63, 0x6f, 
    0x6e, 0x76, 0x32, 0x64, 0x5f, 0x35, 0x30, 0x2f, 0x42, 0x69, 0x61, 0x73, 
    0x41, 0x64, 0x64, 0x2f, 0x52, 0x65, 0x61, 0x64, 0x56, 0x61, 0x72, 0x69, 
    0x61, 0x62, 0x6c, 0x65, 0x4f, 0x70, 0x00, 0x00, 0x01, 0x00, 0x00, 0x00, 
    0x20, 0x00, 0x00, 0x00, 0x12, 0xf4, 0xff, 0xff, 0x00, 0x00, 0x00, 0x01, 
    0x14, 0x00, 0x00, 0x00, 0xe4, 0x00, 0x00, 0x00, 0x10, 0x00, 0x00, 0x00, 
    0x00, 0x00, 0x00, 0x09, 0xfc, 0x00, 0x00, 0x00, 0xac, 0xf6, 0xff, 0xff, 
    0x08, 0x00, 0x00, 0x00, 0x88, 0x00, 0x00, 0x00, 0x10, 0x00, 0x00, 0x00, 
    0x00, 0x00, 0x00, 0x00, 0x00, 0x00, 0x00, 0x00, 0x00, 0x00, 0x00, 0x00, 
    0x00, 0x00, 0x00, 0x00, 0x00, 0x00, 0x00, 0x00, 0x00, 0x00, 0x00, 0x00, 
    0x00, 0x00, 0x00, 0x00, 0x00, 0x00, 0x00, 0x00, 0x00, 0x00, 0x00, 0x00, 
    0x00, 0x00, 0x00, 0x00, 0x00, 0x00, 0x00, 0x00, 0x00, 0x00, 0x00, 0x00, 
    0x00, 0x00, 0x00, 0x00, 0x00, 0x00, 0x00, 0x00, 0x00, 0x00, 0x00, 0x00, 
    0x00, 0x00, 0x00, 0x00, 0x00, 0x00, 0x00, 0x00, 0x00, 0x00, 0x00, 0x00, 
    0x00, 0x00, 0x00, 0x00, 0x00, 0x00, 0x00, 0x00, 0x00, 0x00, 0x00, 0x00, 
    0x00, 0x00, 0x00, 0x00, 0x00, 0x00, 0x00, 0x00, 0x00, 0x00, 0x00, 0x00, 
    0x00, 0x00, 0x00, 0x00, 0x00, 0x00, 0x00, 0x00, 0x00, 0x00, 0x00, 0x00, 
    0x00, 0x00, 0x00, 0x00, 0x00, 0x00, 0x00, 0x00, 0x00, 0x00, 0x00, 0x00, 
    0x00, 0x00, 0x00, 0x00, 0x00, 0x00, 0x00, 0x00, 0x10, 0x00, 0x00, 0x00, 
    0xad, 0x26, 0xf6, 0x3a, 0xbb, 0x3c, 0xda, 0x3a, 0x6f, 0x76, 0xc9, 0x3a, 
