#ifndef MODELO_DF_H
#define MODELO_DF_H

const unsigned int modelo_df_dim1 = 18632;

const unsigned char modelo_df[18632] = {
    0x20, 0x00, 0x00, 0x00, 0x54, 0x46, 0x4c, 0x33, 0x00, 0x00, 0x00, 0x00, 
    0x14, 0x00, 0x20, 0x00, 0x1c, 0x00, 0x18, 0x00, 0x14, 0x00, 0x10, 0x00, 
    0x0c, 0x00, 0x00, 0x00, 0x08, 0x00, 0x04, 0x00, 0x14, 0x00, 0x00, 0x00, 
    0x1c, 0x00, 0x00, 0x00, 0x90, 0x00, 0x00, 0x00, 0xe8, 0x00, 0x00, 0x00, 
    0x64, 0x29, 0x00, 0x00, 0x74, 0x29, 0x00, 0x00, 0xf8, 0x47, 0x00, 0x00, 
    0x03, 0x00, 0x00, 0x00, 0x01, 0x00, 0x00, 0x00, 0x04, 0x00, 0x00, 0x00, 
    0x1e, 0xd6, 0xff, 0xff, 0x0c, 0x00, 0x00, 0x00, 0x1c, 0x00, 0x00, 0x00, 
    0x44, 0x00, 0x00, 0x00, 0x0f, 0x00, 0x00, 0x00, 0x73, 0x65, 0x72, 0x76, 
    0x69, 0x6e, 0x67, 0x5f, 0x64, 0x65, 0x66, 0x61, 0x75, 0x6c, 0x74, 0x00, 
    0x01, 0x00, 0x00, 0x00, 0x04, 0x00, 0x00, 0x00, 0x8c, 0xff, 0xff, 0xff, 
    0x21, 0x00, 0x00, 0x00, 0x04, 0x00, 0x00, 0x00, 0x13, 0x00, 0x00, 0x00, 
    0x63, 0x6f, 0x6e, 0x76, 0x32, 0x64, 0x5f, 0x74, 0x72, 0x61, 0x6e, 0x73, 
    0x70, 0x6f, 0x73, 0x65, 0x5f, 0x36, 0x35, 0x00, 0x01, 0x00, 0x00, 0x00, 
    0x04, 0x00, 0x00, 0x00, 0x1a, 0xd4, 0xff, 0xff, 0x04, 0x00, 0x00, 0x00, 
    0x08, 0x00, 0x00, 0x00, 0x69, 0x6e, 0x70, 0x75, 0x74, 0x5f, 0x33, 0x30, 
    0x00, 0x00, 0x00, 0x00, 0x02, 0x00, 0x00, 0x00, 0x34, 0x00, 0x00, 0x00, 
    0x04, 0x00, 0x00, 0x00, 0xdc, 0xff, 0xff, 0xff, 0x24, 0x00, 0x00, 0x00, 
    0x04, 0x00, 0x00, 0x00, 0x13, 0x00, 0x00, 0x00, 0x43, 0x4f, 0x4e, 0x56, 
    0x45, 0x52, 0x53, 0x49, 0x4f, 0x4e, 0x5f, 0x4d, 0x45, 0x54, 0x41, 0x44, 
    0x41, 0x54, 0x41, 0x00, 0x08, 0x00, 0x0c, 0x00, 0x08, 0x00, 0x04, 0x00, 
    0x08, 0x00, 0x00, 0x00, 0x23, 0x00, 0x00, 0x00, 0x04, 0x00, 0x00, 0x00, 
    0x13, 0x00, 0x00, 0x00, 0x6d, 0x69, 0x6e, 0x5f, 0x72, 0x75, 0x6e, 0x74, 
    0x69, 0x6d, 0x65, 0x5f, 0x76, 0x65, 0x72, 0x73, 0x69, 0x6f, 0x6e, 0x00, 
    0x25, 0x00, 0x00, 0x00, 0x78, 0x28, 0x00, 0x00, 0x70, 0x28, 0x00, 0x00, 
    0x5c, 0x28, 0x00, 0x00, 0x48, 0x28, 0x00, 0x00, 0x34, 0x28, 0x00, 0x00, 
    0x20, 0x28, 0x00, 0x00, 0x0c, 0x28, 0x00, 0x00, 0xf8, 0x27, 0x00, 0x00, 
    0xf0, 0x27, 0x00, 0x00, 0xdc, 0x27, 0x00, 0x00, 0xec, 0x26, 0x00, 0x00, 
    0x5c, 0x26, 0x00, 0x00, 0x4c, 0x18, 0x00, 0x00, 0xfc, 0x17, 0x00, 0x00, 
    0xec, 0x10, 0x00, 0x00, 0x9c, 0x10, 0x00, 0x00, 0x8c, 0x02, 0x00, 0x00, 
    0xfc, 0x01, 0x00, 0x00, 0x0c, 0x01, 0x00, 0x00, 0x04, 0x01, 0x00, 0x00, 
    0xfc, 0x00, 0x00, 0x00, 0xf4, 0x00, 0x00, 0x00, 0xec, 0x00, 0x00, 0x00, 
    0xe4, 0x00, 0x00, 0x00, 0xdc, 0x00, 0x00, 0x00, 0xd4, 0x00, 0x00, 0x00, 
    0xcc, 0x00, 0x00, 0x00, 0xc4, 0x00, 0x00, 0x00, 0xbc, 0x00, 0x00, 0x00, 
    0xb4, 0x00, 0x00, 0x00, 0xac, 0x00, 0x00, 0x00, 0xa4, 0x00, 0x00, 0x00, 
    0x9c, 0x00, 0x00, 0x00, 0x94, 0x00, 0x00, 0x00, 0x8c, 0x00, 0x00, 0x00, 
    0x6c, 0x00, 0x00, 0x00, 0x04, 0x00, 0x00, 0x00, 0x26, 0xd5, 0xff, 0xff, 
    0x04, 0x00, 0x00, 0x00, 0x58, 0x00, 0x00, 0x00, 0x0c, 0x00, 0x00, 0x00, 
    0x08, 0x00, 0x0e, 0x00, 0x08, 0x00, 0x04, 0x00, 0x08, 0x00, 0x00, 0x00, 
    0x10, 0x00, 0x00, 0x00, 0x28, 0x00, 0x00, 0x00, 0x00, 0x00, 0x06, 0x00, 
    0x08, 0x00, 0x04, 0x00, 0x06, 0x00, 0x00, 0x00, 0x04, 0x00, 0x00, 0x00, 
    0x01, 0x00, 0x00, 0x00, 0xeb, 0x03, 0x00, 0x00, 0x00, 0x00, 0x0a, 0x00, 
    0x10, 0x00, 0x0c, 0x00, 0x08, 0x00, 0x04, 0x00, 0x0a, 0x00, 0x00, 0x00, 
    0x01, 0x00, 0x00, 0x00, 0x02, 0x00, 0x00, 0x00, 0x04, 0x00, 0x00, 0x00, 
    0x06, 0x00, 0x00, 0x00, 0x32, 0x2e, 0x31, 0x33, 0x2e, 0x30, 0x00, 0x00, 
    0x8a, 0xd5, 0xff, 0xff, 0x04, 0x00, 0x00, 0x00, 0x10, 0x00, 0x00, 0x00, 
    0x32, 0x2e, 0x31, 0x33, 0x2e, 0x30, 0x00, 0x00, 0x00, 0x00, 0x00, 0x00, 
    0x00, 0x00, 0x00, 0x00, 0x38, 0xba, 0xff, 0xff, 0x3c, 0xba, 0xff, 0xff, 
    0x40, 0xba, 0xff, 0xff, 0x44, 0xba, 0xff, 0xff, 0x48, 0xba, 0xff, 0xff, 
    0x4c, 0xba, 0xff, 0xff, 0x50, 0xba, 0xff, 0xff, 0x54, 0xba, 0xff, 0xff, 
    0x58, 0xba, 0xff, 0xff, 0x5c, 0xba, 0xff, 0xff, 0x60, 0xba, 0xff, 0xff, 
    0x64, 0xba, 0xff, 0xff, 0x68, 0xba, 0xff, 0xff, 0x6c, 0xba, 0xff, 0xff, 
    0x70, 0xba, 0xff, 0xff, 0x74, 0xba, 0xff, 0xff, 0xe6, 0xd5, 0xff, 0xff, 
    0x04, 0x00, 0x00, 0x00, 0xe0, 0x00, 0x00, 0x00, 0xf9, 0x04, 0xc6, 0x81, 
    0x3c, 0x33, 0x16, 0xea, 0xc4, 0xcc, 0x7f, 0xd9, 0x5d, 0x4e, 0x47, 0x33, 
    0xbe, 0x81, 0x1b, 0x0c, 0x08, 0xcc, 0x44, 0xa1, 0x7f, 0xc6, 0xbd, 0xdb, 
    0x57, 0xae, 0x7b, 0x7f, 0x28, 0xa0, 0xb6, 0xb8, 0x24, 0xc5, 0x81, 0x12, 
    0xb7, 0x0a, 0x16, 0xf0, 0x6e, 0x7f, 0x52, 0xcd, 0x7b, 0x17, 0x05, 0x41, 
    0x81, 0x3b, 0x45, 0x39, 0xf1, 0x12, 0x06, 0x81, 0xda, 0x16, 0xc5, 0xae, 
    0x7f, 0x92, 0x02, 0x62, 0xdc, 0xb9, 0x05, 0xb3, 0x28, 0x81, 0x41, 0x04, 
    0x55, 0x08, 0xb3, 0x58, 0x81, 0x25, 0xbe, 0xe3, 0xd4, 0xc5, 0xd9, 0x81, 
    0xcf, 0xdc, 0xbf, 0xd6, 0x7f, 0x99, 0x65, 0x7b, 0xef, 0x10, 0x2b, 0xef, 
    0xe0, 0x7f, 0x36, 0x17, 0x90, 0x12, 0x9a, 0xa5, 0x7f, 0x56, 0x13, 0x41, 
    0x47, 0x8c, 0xf5, 0x7f, 0x02, 0x92, 0xc1, 0xed, 0xb1, 0x0a, 0x7f, 0xea, 
    0x3f, 0xb5, 0xf5, 0x17, 0x2b, 0x7f, 0xe2, 0xfa, 0xb2, 0x32, 0x23, 0xd9, 
    0x81, 0x2f, 0x2d, 0xb8, 0x3f, 0xde, 0xbe, 0x7f, 0x6a, 0x43, 0x1b, 0x15, 
    0xd5, 0xea, 0x7f, 0xa4, 0xfd, 0xa9, 0x15, 0xd8, 0xb3, 0x81, 0xd9, 0xde, 
    0x17, 0xaf, 0xc2, 0x47, 0x6e, 0x84, 0x81, 0x98, 0xe3, 0xb1, 0x7f, 0x01, 
    0x59, 0x33, 0x69, 0xb8, 0x39, 0x74, 0xfd, 0x5b, 0x7f, 0xf9, 0x78, 0x75, 
    0x1c, 0x7f, 0x9f, 0x6a, 0xd4, 0xcf, 0x2f, 0x39, 0x7f, 0x99, 0x1b, 0xb2, 
    0xe8, 0x02, 0xfb, 0x81, 0xf0, 0x38, 0x32, 0xbf, 0x37, 0xe2, 0x81, 0x50, 
    0xad, 0x54, 0xde, 0xba, 0xff, 0xfa, 0x81, 0x0d, 0xee, 0xc6, 0xf0, 0xef, 
    0x81, 0xfd, 0x2c, 0x1f, 0xd2, 0xd6, 0xff, 0xff, 0x04, 0x00, 0x00, 0x00, 
    0x80, 0x00, 0x00, 0x00, 0x4e, 0xfc, 0xff, 0xff, 0xae, 0xf7, 0xff, 0xff, 
    0x7a, 0x01, 0x00, 0x00, 0x80, 0xfc, 0xff, 0xff, 0x3b, 0xfb, 0xff, 0xff, 
    0xec, 0xfc, 0xff, 0xff, 0xee, 0xfd, 0xff, 0xff, 0x10, 0x02, 0x00, 0x00, 
    0xb5, 0xf9, 0xff, 0xff, 0x4f, 0xfe, 0xff, 0xff, 0xe2, 0xfa, 0xff, 0xff, 
    0xf0, 0xff, 0xff, 0xff, 0x06, 0xfe, 0xff, 0xff, 0x8e, 0xfe, 0xff, 0xff, 
    0x79, 0xfd, 0xff, 0xff, 0xb6, 0xfd, 0xff, 0xff, 0x07, 0xfe, 0xff, 0xff, 
    0x2f, 0xfc, 0xff, 0xff, 0x2d, 0xfb, 0xff, 0xff, 0xb9, 0xfa, 0xff, 0xff, 
    0xff, 0xf9, 0xff, 0xff, 0x01, 0xf6, 0xff, 0xff, 0xa4, 0x01, 0x00, 0x00, 
    0x5d, 0xf9, 0xff, 0xff, 0x28, 0xff, 0xff, 0xff, 0x69, 0xff, 0xff, 0xff, 
    0x2d, 0xfe, 0xff, 0xff, 0xd0, 0xfc, 0xff, 0xff, 0x1d, 0x00, 0x00, 0x00, 
    0xf7, 0xfb, 0xff, 0xff, 0xda, 0xfe, 0xff, 0xff, 0x41, 0xf9, 0xff, 0xff, 
    0x5e, 0xd7, 0xff, 0xff, 0x04, 0x00, 0x00, 0x00, 0x00, 0x0e, 0x00, 0x00, 
    0x9e, 0xf5, 0x99, 0x11, 0xd9, 0xb9, 0xfe, 0xa2, 0x29, 0x39, 0x63, 0xac, 
    0xd9, 0x74, 0x74, 0x4b, 0xbd, 0x87, 0xfa, 0x2c, 0xf7, 0x86, 0xd4, 0x08, 
    0xba, 0x0c, 0x7a, 0x6f, 0xab, 0xd2, 0x55, 0xa6, 0xf6, 0xc6, 0x79, 0xc3, 
    0xd3, 0x7f, 0x12, 0x41, 0xd5, 0xfb, 0x08, 0x93, 0x6a, 0x16, 0xd0, 0x97, 
    0x9e, 0x48, 0xee, 0xe8, 0x69, 0x23, 0x56, 0xdb, 0x26, 0x50, 0x4f, 0x31, 
    0x2e, 0xc6, 0xc9, 0xdb, 0x66, 0x79, 0xb9, 0xa0, 0x84, 0x05, 0x3a, 0xe3, 
    0xf5, 0x26, 0x23, 0x9e, 0xbd, 0xd1, 0x6b, 0xf6, 0xbb, 0xb8, 0xc3, 0xb7, 
    0xa9, 0x54, 0xf9, 0x3c, 0x09, 0xd0, 0xa4, 0x29, 0xde, 0x0f, 0xd6, 0x47, 
    0x88, 0xb3, 0xf7, 0xae, 0x1a, 0xa1, 0xb4, 0x19, 0x7c, 0x9b, 0x1e, 0x95, 
    0xf5, 0xce, 0xb1, 0xce, 0x27, 0xf1, 0x32, 0xd6, 0x07, 0x8f, 0x8c, 0x39, 
    0xd6, 0x8d, 0xbb, 0xa7, 0xdd, 0x66, 0xd1, 0xd0, 0x72, 0xa2, 0x4b, 0x21, 
    0x98, 0x32, 0x50, 0xa0, 0xd8, 0xc7, 0x9a, 0x6d, 0x77, 0xb0, 0x13, 0x7c, 
    0xb9, 0x39, 0x1b, 0xf8, 0xf3, 0x18, 0xd7, 0x47, 0xf6, 0x27, 0x2a, 0x66, 
    0x5d, 0x4e, 0x61, 0xe6, 0x51, 0x57, 0xf4, 0xc8, 0xee, 0xc7, 0x45, 0xd0, 
    0x2e, 0xf6, 0xa9, 0x46, 0xb1, 0x1f, 0x2b, 0xa2, 0x75, 0x13, 0xf7, 0x12, 
    0x13, 0x45, 0xde, 0x78, 0x24, 0x53, 0xe6, 0x69, 0x55, 0xff, 0x13, 0x44, 
    0xe3, 0x71, 0x50, 0xb9, 0x78, 0xb8, 0xd0, 0xea, 0x26, 0x0f, 0x20, 0x95, 
    0x1f, 0xdc, 0x78, 0xe1, 0xa8, 0x75, 0x1e, 0xda, 0x36, 0xd8, 0xd9, 0x69, 
    0xe7, 0x3a, 0x7e, 0x5b, 0x40, 0x8d, 0x75, 0x0c, 0xe7, 0xf6, 0xfb, 0xe1, 
    0xfc, 0x26, 0x04, 0xe5, 0xd0, 0xe0, 0xf0, 0x1c, 0x21, 0xd1, 0x15, 0x0f, 
    0x23, 0x22, 0x08, 0xe4, 0xd8, 0xd2, 0x2f, 0x16, 0x1a, 0xf2, 0x1b, 0x18, 
    0x00, 0x15, 0xe4, 0x0c, 0xe2, 0x18, 0xe3, 0x18, 0x2d, 0xd4, 0xcf, 0x28, 
    0xfa, 0xe2, 0x1a, 0xe5, 0xf1, 0x12, 0x1c, 0x1c, 0xcf, 0x09, 0x09, 0xcf, 
    0x07, 0xd4, 0xf0, 0x1f, 0xee, 0xf7, 0x20, 0x0d, 0xf5, 0xd6, 0xe4, 0x00, 
    0x0a, 0xeb, 0xe0, 0x21, 0x06, 0xe7, 0xf0, 0x17, 0xf1, 0x0e, 0x17, 0x20, 
    0x0d, 0xf5, 0x12, 0x0d, 0xcf, 0x0a, 0x20, 0x26, 0xe8, 0x29, 0xd6, 0x06, 
    0xf6, 0x06, 0xd4, 0xf3, 0x21, 0xd5, 0x0f, 0x1a, 0x13, 0xc5, 0x40, 0xee, 
    0xf3, 0x31, 0xe7, 0x17, 0x31, 0x20, 0x7f, 0x41, 0x59, 0xcc, 0xcb, 0xd4, 
    0xe8, 0xd2, 0xea, 0x3c, 0xcc, 0xea, 0x1d, 0xd7, 0x17, 0xd2, 0xf4, 0xe8, 
    0x1c, 0x53, 0xf7, 0x43, 0x2d, 0x0b, 0x24, 0xfc, 0x14, 0x18, 0xf3, 0x2b, 
    0x0b, 0xf0, 0x31, 0xf5, 0xd9, 0x11, 0xea, 0x0d, 0xfe, 0xdf, 0x1d, 0xd9, 
    0x12, 0xe5, 0x00, 0x05, 0xf9, 0xfd, 0x2f, 0x14, 0x19, 0x09, 0xec, 0xe1, 
    0xe3, 0x1e, 0x30, 0x31, 0xfd, 0xeb, 0x22, 0x0f, 0x1d, 0x21, 0xe4, 0x15, 
    0x25, 0xe2, 0x1f, 0x1d, 0xf3, 0x01, 0x2b, 0x0e, 0x2b, 0x0a, 0x21, 0xe5, 
    0xe1, 0xf5, 0x28, 0xf4, 0xcf, 0x1a, 0xda, 0xfc, 0x07, 0xe2, 0x07, 0xd4, 
    0xeb, 0xe6, 0x0f, 0x17, 0x28, 0xff, 0xf7, 0x20, 0x1a, 0xed, 0xf9, 0x18, 
    0xef, 0xf9, 0x2f, 0xd6, 0x10, 0xd8, 0x28, 0x2b, 0x1f, 0xcf, 0x02, 0x23, 
    0xff, 0xe0, 0x0e, 0xd2, 0xc2, 0xc1, 0x1b, 0x0c, 0xff, 0x47, 0x28, 0xf4, 
    0xc6, 0xb5, 0x3e, 0x06, 0x13, 0x39, 0xfa, 0xd6, 0xdc, 0x08, 0xd8, 0x30, 
    0xf2, 0xe2, 0xc0, 0xc9, 0xc3, 0xd6, 0x34, 0xeb, 0x3d, 0xe2, 0xc1, 0x0c, 
    0xe3, 0xe7, 0x11, 0x44, 0x3a, 0x00, 0xba, 0xe4, 0x13, 0xea, 0xb8, 0xd1, 
    0xfb, 0x04, 0xbd, 0xd9, 0x40, 0xdf, 0x41, 0x2b, 0xc6, 0x17, 0x11, 0x06, 
    0x3d, 0x37, 0x07, 0x1f, 0x0b, 0x17, 0x2b, 0xcd, 0x41, 0x1f, 0xfc, 0xdf, 
    0xd9, 0xd1, 0x02, 0xc2, 0x43, 0x02, 0x22, 0x00, 0xc9, 0xca, 0x1c, 0xb7, 
    0xc3, 0x3d, 0xc2, 0x46, 0xce, 0xf5, 0xd7, 0xff, 0xfa, 0xdc, 0xdb, 0x29, 
    0x35, 0xec, 0xce, 0x11, 0xbf, 0x2c, 0xae, 0xe5, 0x24, 0xee, 0x27, 0x81, 
    0x19, 0x2b, 0xd1, 0xc2, 0x1b, 0xe3, 0x31, 0xdf, 0x38, 0xe2, 0xcf, 0xbf, 
    0x20, 0xde, 0x95, 0x09, 0x0c, 0xe7, 0x20, 0xad, 0xc7, 0xc8, 0x16, 0x09, 
    0x35, 0x1c, 0x1a, 0xe5, 0x45, 0xcd, 0xdc, 0x41, 0x1c, 0xee, 0x0d, 0xdb, 
    0x38, 0x13, 0xdb, 0xe2, 0xca, 0xfc, 0x15, 0x23, 0xf3, 0x27, 0x1e, 0xfe, 
    0x15, 0xf0, 0xfa, 0x02, 0x35, 0xd3, 0x04, 0x27, 0xcf, 0xc4, 0xe5, 0xc0, 
    0xde, 0xbc, 0xc9, 0x2d, 0xe2, 0x05, 0xf1, 0xd0, 0xd7, 0xbe, 0xc1, 0x10, 
    0xfa, 0x30, 0x11, 0xe6, 0x35, 0x37, 0xd7, 0x36, 0xe7, 0x11, 0x08, 0xfe, 
    0xbf, 0xfb, 0xe6, 0xc4, 0xc0, 0xce, 0xb9, 0x2c, 0x29, 0xd8, 0x15, 0x38, 
    0x3f, 0x28, 0xda, 0x48, 0xb9, 0xbe, 0xbb, 0x3f, 0xb6, 0xba, 0x01, 0xca, 
    0xcf, 0x37, 0xe2, 0x35, 0xde, 0xe6, 0x2a, 0x3e, 0xdb, 0xbf, 0xba, 0x29, 
    0x44, 0x21, 0xbc, 0x18, 0xf7, 0xc5, 0x40, 0x3d, 0xb7, 0xf3, 0x0a, 0x29, 
    0xc7, 0xc5, 0xed, 0x04, 0x49, 0x40, 0xc0, 0x3a, 0x26, 0xe8, 0xc7, 0xfc, 
    0x0a, 0xfb, 0xfc, 0x15, 0xf0, 0x28, 0x1e, 0xc9, 0x0b, 0x09, 0x47, 0xe3, 
    0xde, 0x13, 0xf6, 0xe5, 0x46, 0x35, 0x2d, 0x11, 0xf0, 0x04, 0xbd, 0xcc, 
    0x29, 0xc2, 0xe3, 0x42, 0xdf, 0xd4, 0xce, 0xf1, 0xbf, 0x10, 0x35, 0x2b, 
    0xc6, 0xd3, 0xbd, 0x28, 0xef, 0xf2, 0x14, 0x16, 0xe1, 0xf0, 0xcf, 0x0d, 
    0xd5, 0xc9, 0x2e, 0xeb, 0x2c, 0x28, 0xe2, 0x0e, 0xcc, 0xf5, 0x07, 0x12, 
    0x1d, 0x40, 0xd4, 0xfc, 0x2b, 0x21, 0xca, 0x3f, 0xdd, 0x37, 0xe2, 0x32, 
    0xca, 0x32, 0xab, 0x3e, 0x1b, 0xcf, 0x63, 0x81, 0xaf, 0x39, 0xde, 0xa3, 
    0xc9, 0x23, 0x59, 0x30, 0xe6, 0x2e, 0x4e, 0xcf, 0x45, 0x78, 0xaf, 0x30, 
    0xc4, 0xf6, 0x37, 0x55, 0xa5, 0xff, 0x29, 0xdc, 0xc3, 0x05, 0x36, 0x25, 
    0x40, 0x26, 0x39, 0xb7, 0xba, 0x02, 0xe6, 0xda, 0x1c, 0x11, 0x34, 0x19, 
    0xf4, 0xbe, 0x49, 0xb9, 0xf5, 0xe5, 0x17, 0x33, 0xd6, 0x3b, 0xdd, 0x42, 
    0xbf, 0x38, 0xc5, 0xfc, 0xff, 0x16, 0x39, 0xda, 0xe6, 0xd2, 0x1b, 0x03, 
    0x34, 0x08, 0x0a, 0xd2, 0xd2, 0x2c, 0x06, 0x27, 0x36, 0xe4, 0xbc, 0x21, 
    0x17, 0xcb, 0xd7, 0x33, 0xc8, 0xb8, 0xea, 0xcd, 0x0d, 0x36, 0x3e, 0xfc, 
    0x1b, 0x1d, 0xbc, 0x1d, 0xce, 0xb9, 0x48, 0xb7, 0x13, 0x24, 0x1a, 0xc2, 
    0xc3, 0xe8, 0x2c, 0x08, 0x27, 0x10, 0x3d, 0xed, 0x3a, 0xf6, 0xdf, 0x2c, 
    0x27, 0xd4, 0x11, 0xe4, 0xe4, 0x08, 0xca, 0xd2, 0xf9, 0x44, 0x1d, 0x2d, 
    0xf9, 0x2d, 0xea, 0xec, 0x14, 0x42, 0x11, 0xf1, 0xf0, 0xe8, 0xcb, 0x30, 
    0xf7, 0x2c, 0x3d, 0x04, 0xf4, 0xc6, 0x1a, 0xce, 0x30, 0x3a, 0x1b, 0x23, 
    0x11, 0x32, 0x29, 0xec, 0x32, 0x11, 0xc6, 0xe7, 0xf0, 0xeb, 0xe4, 0x3d, 
    0x1b, 0xe1, 0xc0, 0xeb, 0xdc, 0x35, 0x16, 0xc0, 0xe1, 0x35, 0xf8, 0xc3, 
    0x14, 0xbf, 0x39, 0xce, 0xf4, 0x33, 0xe2, 0xea, 0x0d, 0xd9, 0x30, 0x25, 
    0x07, 0x2e, 0x38, 0x17, 0x12, 0x3e, 0xed, 0xde, 0x1e, 0x01, 0x2d, 0xc7, 
    0x17, 0xe6, 0x35, 0x24, 0xee, 0xf5, 0xc3, 0x0b, 0x07, 0xd3, 0xe2, 0xc7, 
    0x11, 0x0a, 0xc4, 0x42, 0x32, 0xcf, 0x24, 0xf9, 0x15, 0xf6, 0x4a, 0xf1, 
    0x33, 0x5d, 0xec, 0x20, 0x7c, 0xd3, 0x3f, 0x5c, 0x0b, 0xfd, 0xe9, 0xef, 
    0x18, 0x4f, 0x08, 0x40, 0x42, 0xc2, 0x6d, 0xef, 0x10, 0x00, 0x23, 0x16, 
    0x7f, 0x75, 0x29, 0x75, 0xd5, 0xd2, 0x35, 0x10, 0x2e, 0xf6, 0x18, 0x13, 
    0xfe, 0x1d, 0x1f, 0xc8, 0xc6, 0x21, 0x1f, 0x27, 0x27, 0xc2, 0x3e, 0x0d, 
    0xc8, 0xce, 0xbd, 0x1c, 0x08, 0x0e, 0x33, 0xcd, 0xd6, 0x0e, 0x3e, 0x3c, 
    0x3d, 0x32, 0x07, 0x36, 0x0c, 0xde, 0xd0, 0xf1, 0xbd, 0x18, 0x05, 0x3c, 
    0x12, 0xfd, 0xc4, 0x25, 0x14, 0x09, 0xe1, 0xe5, 0x0a, 0x09, 0xff, 0xf7, 
    0x1f, 0xe6, 0xd9, 0xc4, 0xee, 0xf2, 0xd9, 0x20, 0x13, 0xd5, 0x3b, 0x06, 
    0xde, 0xbf, 0xdf, 0x39, 0xf8, 0xf6, 0x09, 0x1c, 0xff, 0x27, 0xdc, 0xf6, 
    0xff, 0xd1, 0xbf, 0xc5, 0x27, 0xbf, 0x30, 0xc9, 0x44, 0x2b, 0x34, 0xd0, 
    0x43, 0x36, 0x25, 0xf7, 0x0f, 0xc2, 0x4a, 0xe1, 0x47, 0xc2, 0x2b, 0xfe, 
    0xff, 0x21, 0xfd, 0x29, 0x21, 0x19, 0x20, 0xce, 0xd1, 0xbc, 0x0a, 0xf8, 
    0xe4, 0xf3, 0x3b, 0x35, 0xfd, 0xbd, 0xb8, 0xb9, 0xd7, 0xce, 0xd3, 0x3b, 
    0x0d, 0xfb, 0x2c, 0xe4, 0x29, 0xce, 0x1a, 0xde, 0xf1, 0x47, 0xed, 0x05, 
    0x1c, 0xda, 0x12, 0xfc, 0x39, 0xe2, 0xf5, 0x16, 0x41, 0x1e, 0xe4, 0x43, 
    0xbe, 0x0a, 0x2b, 0x01, 0xbf, 0x24, 0x28, 0xda, 0xe8, 0x2e, 0x38, 0x47, 
    0x3c, 0xe7, 0x14, 0x1e, 0x19, 0xbe, 0xcb, 0x33, 0xe9, 0xbe, 0xfc, 0xf7, 
    0xd5, 0xf8, 0x19, 0x0f, 0xc5, 0xfd, 0x00, 0xdd, 0x42, 0x25, 0x13, 0x01, 
    0xe8, 0xc1, 0x31, 0x3e, 0xa1, 0x02, 0xf8, 0x15, 0x64, 0xa8, 0x27, 0x10, 
    0x84, 0xd5, 0xaf, 0xb9, 0xcc, 0x48, 0x72, 0x43, 0x72, 0x02, 0x51, 0x9e, 
    0x5d, 0x7f, 0xd1, 0x37, 0xeb, 0xc8, 0x24, 0x5d, 0xc4, 0xda, 0xef, 0xd4, 
    0xd4, 0xe0, 0x1a, 0x37, 0x13, 0x00, 0x33, 0xd8, 0xb6, 0x0c, 0x05, 0x3e, 
    0xee, 0xb9, 0xc6, 0x34, 0xef, 0xf1, 0xb8, 0xd4, 0x47, 0x15, 0xe3, 0xcb, 
    0x47, 0xcb, 0x2d, 0xe6, 0x3f, 0xec, 0x1c, 0x47, 0x30, 0xba, 0xe5, 0xf4, 
    0xdf, 0xf8, 0x43, 0xed, 0x20, 0xe5, 0xc4, 0xf7, 0x2f, 0x1c, 0x30, 0x02, 
    0xef, 0x20, 0x34, 0xbd, 0xd6, 0x1b, 0x14, 0xd5, 0x21, 0x2c, 0x0c, 0xc9, 
    0xfa, 0xf4, 0x39, 0x43, 0xbc, 0x02, 0xba, 0x33, 0xf8, 0x41, 0x1e, 0x41, 
    0xec, 0xce, 0x43, 0xfc, 0x3b, 0xcd, 0x3b, 0xbc, 0xf6, 0x20, 0xc9, 0x1e, 
    0xc8, 0xea, 0x3b, 0xba, 0xb6, 0xfc, 0x48, 0x1b, 0xdd, 0xc2, 0x49, 0xbf, 
    0x07, 0x25, 0x35, 0x05, 0xfd, 0xe4, 0x26, 0x24, 0x2a, 0xd7, 0x1d, 0x16, 
    0x26, 0x13, 0x19, 0x32, 0xe6, 0xe7, 0xcd, 0x30, 0x1c, 0xe3, 0x01, 0xed, 
    0xcd, 0x23, 0x0b, 0xf5, 0xd8, 0xd3, 0xce, 0xdc, 0x0b, 0xff, 0xdb, 0x1a, 
    0x2a, 0x1b, 0x31, 0xca, 0x11, 0xda, 0x11, 0xef, 0xf9, 0x13, 0x0c, 0x28, 
    0x2d, 0xfb, 0xd5, 0xdb, 0xde, 0xf2, 0xd1, 0x00, 0x33, 0xe6, 0xfa, 0x20, 
    0x34, 0xed, 0xcd, 0x26, 0x2d, 0x09, 0x06, 0x30, 0x20, 0x16, 0xd4, 0x16, 
    0xf5, 0xcc, 0xd0, 0xf9, 0x12, 0xcc, 0xda, 0x17, 0x13, 0xd3, 0x27, 0x0f, 
    0x24, 0x25, 0x1c, 0xd2, 0xff, 0x33, 0xe7, 0xca, 0x2b, 0x00, 0xfd, 0x05, 
    0x63, 0xed, 0x17, 0xff, 0x21, 0x02, 0x06, 0x4c, 0x55, 0x25, 0x7f, 0x06, 
    0x16, 0x0a, 0x18, 0x13, 0xf1, 0x0c, 0xfc, 0x65, 0x15, 0xd3, 0xf7, 0x12, 
    0x11, 0xda, 0xe9, 0x03, 0x20, 0x4e, 0xeb, 0x4a, 0xca, 0xfa, 0x05, 0xf2, 
    0x08, 0x28, 0x32, 0x07, 0x23, 0xd2, 0xfc, 0x21, 0xfd, 0x27, 0x28, 0x18, 
    0x07, 0x33, 0xca, 0xf7, 0x12, 0xe3, 0xf4, 0xf8, 0x22, 0x02, 0xe9, 0x26, 
    0x33, 0x24, 0xfa, 0xee, 0x04, 0x08, 0x08, 0x32, 0x2e, 0xd1, 0xcd, 0x26, 
    0x2b, 0xd7, 0xcc, 0x2e, 0xed, 0xfe, 0x30, 0x0c, 0x33, 0xf5, 0xe0, 0xfa, 
    0xe8, 0xf8, 0xfb, 0xed, 0x01, 0xd4, 0xe7, 0xfb, 0xd2, 0x35, 0x03, 0xdf, 
    0xf5, 0x24, 0x0b, 0x19, 0x35, 0xfa, 0xdd, 0xe8, 0x05, 0xe6, 0x1c, 0x34, 
    0x23, 0x05, 0x0c, 0xf2, 0x06, 0xe3, 0xd5, 0xf5, 0xf0, 0x07, 0x14, 0x36, 
    0x1d, 0xd9, 0xec, 0x1b, 0xcc, 0xef, 0x26, 0x35, 0x21, 0x28, 0xe0, 0x1f, 
    0x42, 0xc7, 0xfe, 0xb1, 0x0f, 0x4d, 0x25, 0xd9, 0xc8, 0xf2, 0xd3, 0xf8, 
    0x38, 0x09, 0x00, 0x01, 0x11, 0xaf, 0x28, 0x49, 0x32, 0x21, 0x0f, 0xd3, 
    0xfb, 0x25, 0xb0, 0x4e, 0xfd, 0xc6, 0x34, 0xe1, 0x49, 0x21, 0xfb, 0x50, 
    0xe9, 0x18, 0x36, 0x15, 0xf9, 0xbe, 0x0c, 0xdc, 0x47, 0xb4, 0xe8, 0x06, 
    0x4c, 0xc0, 0x4a, 0xec, 0x17, 0xdc, 0x47, 0x21, 0x40, 0xd2, 0xbb, 0x44, 
    0x22, 0x02, 0x33, 0xf4, 0xb1, 0x1c, 0xb4, 0xfd, 0x31, 0xee, 0x25, 0xd7, 
    0x23, 0xdd, 0xf0, 0x4e, 0xd3, 0xe7, 0x12, 0xb6, 0xfd, 0xb2, 0x4e, 0xb7, 
    0xda, 0x4c, 0xe4, 0xd3, 0xaf, 0x40, 0xf1, 0xea, 0xb3, 0x6f, 0xd3, 0x72, 
    0x5d, 0xc4, 0x22, 0xe5, 0x81, 0xbf, 0xf9, 0xbd, 0x9a, 0xe7, 0x30, 0xe3, 
    0xf8, 0x23, 0xf5, 0xab, 0x57, 0x2e, 0xd7, 0x27, 0x0b, 0x3f, 0x11, 0x63, 
    0xec, 0x04, 0xcf, 0xe4, 0x08, 0xaf, 0xd7, 0x3c, 0x11, 0xc7, 0xfb, 0x01, 
    0xd1, 0xb8, 0xf8, 0xfb, 0x0f, 0x13, 0x0e, 0x45, 0x05, 0x2b, 0x38, 0x41, 
    0x2b, 0x00, 0xf0, 0x3f, 0x10, 0x43, 0x1a, 0xdf, 0x42, 0xc1, 0x24, 0xc5, 
    0xe9, 0xc2, 0xba, 0xe7, 0x0d, 0xe2, 0xcb, 0xb9, 0x3c, 0xbe, 0xcc, 0xd2, 
    0xc9, 0x22, 0xc3, 0x30, 0x4f, 0xbb, 0x26, 0x31, 0x36, 0x51, 0xdd, 0x13, 
    0x25, 0x3c, 0xb0, 0x10, 0x07, 0xed, 0x27, 0x0d, 0x49, 0x03, 0xff, 0x4d, 
    0xba, 0xcf, 0xbf, 0x20, 0x0b, 0xdd, 0x3f, 0x23, 0xf2, 0x10, 0xdf, 0x0c, 
    0xcb, 0x37, 0x4c, 0x22, 0xff, 0x36, 0x46, 0x1f, 0xd8, 0xea, 0x18, 0x02, 
    0xba, 0x3e, 0xdf, 0x4a, 0x0a, 0x1d, 0x11, 0x2d, 0xc2, 0xff, 0x32, 0xdb, 
    0xd0, 0xf0, 0xcf, 0x0a, 0xd9, 0xc5, 0xf6, 0x40, 0xc0, 0x31, 0x18, 0xe8, 
    0x31, 0x32, 0x34, 0xbe, 0x33, 0xdb, 0xe4, 0x09, 0x41, 0xd6, 0x39, 0xd3, 
    0x04, 0xe1, 0x30, 0xcf, 0xe9, 0xfc, 0xf4, 0xe0, 0xd9, 0x38, 0xc6, 0x36, 
    0xc0, 0x0e, 0x07, 0x1a, 0x01, 0x29, 0x09, 0x05, 0xde, 0x41, 0xcc, 0x33, 
    0xc5, 0x30, 0xc2, 0xbf, 0x18, 0xbd, 0xff, 0xfe, 0x35, 0xc9, 0xe7, 0xf3, 
    0xdf, 0xce, 0xd5, 0xf8, 0x41, 0xe6, 0xf9, 0xdb, 0xe5, 0x1a, 0x42, 0x40, 
    0xee, 0x0f, 0x35, 0x27, 0xda, 0x19, 0xd4, 0x20, 0xec, 0x33, 0x19, 0x0c, 
    0x2d, 0x40, 0xca, 0xf9, 0x65, 0xe0, 0x39, 0x27, 0x2d, 0x7f, 0xf2, 0x66, 
    0x55, 0xcf, 0x3c, 0x66, 0x63, 0xfc, 0xe2, 0xfa, 0x21, 0x15, 0x15, 0x46, 
    0x29, 0xd1, 0x71, 0x04, 0xfd, 0xe8, 0xd6, 0x19, 0x55, 0x38, 0xe5, 0x14, 
    0x36, 0xc9, 0xe3, 0x40, 0xfb, 0x39, 0x14, 0x04, 0x04, 0xc1, 0xdb, 0xc7, 
    0x41, 0xcb, 0x11, 0x0c, 0xed, 0x08, 0xe1, 0xce, 0xfe, 0x43, 0xe3, 0xf3, 
    0x27, 0x15, 0x42, 0x2d, 0x23, 0x1e, 0xe3, 0xd6, 0x39, 0x0e, 0xe8, 0xf1, 
    0x1f, 0x10, 0xf3, 0xf4, 0x2f, 0x04, 0x23, 0xff, 0x10, 0xc2, 0x15, 0x3c, 
    0xfc, 0x1e, 0x33, 0xf9, 0x2f, 0xcb, 0x1c, 0x1d, 0x24, 0xf3, 0xf8, 0xdb, 
    0x0c, 0x02, 0xcb, 0xc2, 0x12, 0x01, 0x2b, 0x3d, 0xff, 0x3c, 0x16, 0x32, 
    0x1f, 0xf2, 0x1f, 0xc5, 0xfc, 0xd5, 0x12, 0xec, 0x2b, 0x3c, 0x0f, 0xc4, 
    0xf7, 0x0a, 0x07, 0xcf, 0x29, 0xde, 0x3f, 0x06, 0xd9, 0x0a, 0x20, 0x19, 
    0xf7, 0xc4, 0xe9, 0x30, 0x50, 0x38, 0x42, 0xef, 0x50, 0xb8, 0xc8, 0x0b, 
    0xbc, 0x33, 0xf4, 0x07, 0x1e, 0xe3, 0x48, 0xd6, 0xba, 0xe0, 0xc1, 0x30, 
    0x27, 0xc2, 0x4a, 0x54, 0xbb, 0xc1, 0xe6, 0x25, 0xbb, 0x3e, 0xf3, 0xfe, 
    0xf2, 0xfa, 0xde, 0x36, 0xd6, 0xd1, 0xee, 0xd2, 0xd3, 0x41, 0xbf, 0x1b, 
    0x0c, 0xb4, 0x07, 0xb0, 0x4c, 0xbc, 0x36, 0x43, 0xf9, 0x52, 0x15, 0x24, 
    0xf3, 0xd9, 0xb4, 0x1e, 0x51, 0x05, 0x05, 0x47, 0x2c, 0xcf, 0x29, 0x42, 
    0xd9, 0xd0, 0x1c, 0x4a, 0x33, 0x0f, 0xf4, 0x37, 0xed, 0xd4, 0xdd, 0xc8, 
    0xe1, 0x34, 0xec, 0x43, 0xe6, 0xe9, 0xf0, 0xcf, 0x52, 0x24, 0x4b, 0x06, 
    0x26, 0x39, 0x36, 0x04, 0x35, 0xf8, 0x00, 0xf4, 0xa2, 0xc8, 0xee, 0x03, 
    0x03, 0x71, 0x08, 0x6a, 0x7f, 0x36, 0xed, 0xd1, 0x4d, 0xff, 0x49, 0x43, 
    0xfa, 0xcc, 0x68, 0xeb, 0x29, 0x4a, 0xfd, 0xcc, 0xf9, 0x3a, 0x1d, 0xe2, 
    0xff, 0x3d, 0x0f, 0xdd, 0xb6, 0xbe, 0x22, 0xf9, 0xbb, 0x2b, 0x1f, 0x1b, 
    0xe0, 0xbb, 0x12, 0x28, 0x51, 0x4e, 0xde, 0xe7, 0x52, 0x3e, 0xe3, 0x4b, 
    0xcd, 0x16, 0xac, 0xb5, 0xff, 0x46, 0x3a, 0xe5, 0xcc, 0x04, 0x36, 0x1c, 
    0x4f, 0xe0, 0xae, 0x3a, 0xeb, 0x12, 0xb2, 0x30, 0x2a, 0xde, 0x44, 0xc1, 
    0x18, 0xd8, 0x1c, 0x38, 0xb5, 0x41, 0xd9, 0x41, 0x53, 0xe5, 0x1a, 0x4e, 
    0x3b, 0xea, 0x22, 0xba, 0x26, 0x33, 0xbb, 0xfe, 0x0a, 0x4b, 0xb0, 0xc5, 
    0x2c, 0xad, 0x10, 0xb8, 0xe5, 0xaf, 0xbb, 0xd0, 0x3c, 0x4e, 0xf7, 0xf8, 
    0xb1, 0xef, 0xf0, 0xcc, 0xe3, 0x0d, 0x2f, 0xbc, 0xf5, 0xc8, 0xed, 0xf2, 
    0xcb, 0x2f, 0x2e, 0xeb, 0xfc, 0xfe, 0xea, 0x21, 0x03, 0xe9, 0xef, 0xf0, 
    0xec, 0x10, 0xdc, 0x16, 0xcf, 0xdb, 0x05, 0x00, 0xca, 0x27, 0x2c, 0x1f, 
    0xdf, 0xe3, 0xc9, 0xcb, 0xfe, 0xea, 0xe7, 0x2f, 0xef, 0x38, 0xdf, 0x2b, 
    0xcf, 0xef, 0x0a, 0x2d, 0x2b, 0x29, 0x0d, 0x06, 0x0b, 0xec, 0xc9, 0x04, 
    0x0a, 0x08, 0x21, 0x38, 0x2e, 0x1b, 0x00, 0x31, 0xe2, 0xcb, 0xcb, 0x36, 
    0xd7, 0x36, 0x2f, 0x04, 0x13, 0x0c, 0x0f, 0x36, 0xe7, 0x1d, 0xef, 0x0a, 
    0xdf, 0xcc, 0xcd, 0xdb, 0x18, 0xe5, 0x08, 0xf7, 0xec, 0x1d, 0x0c, 0xf8, 
    0xfd, 0x24, 0x0c, 0x22, 0x0e, 0x34, 0x22, 0x29, 0x2d, 0x51, 0x10, 0x03, 
    0x45, 0x51, 0x11, 0x2d, 0x32, 0x38, 0x1e, 0x3d, 0x53, 0x3f, 0x08, 0x44, 
    0x0f, 0x0c, 0x02, 0x65, 0x03, 0x0e, 0x4b, 0x27, 0x26, 0x1b, 0x13, 0x34, 
    0xf7, 0x47, 0x1d, 0x7f, 0xfa, 0xfc, 0xfa, 0x10, 0x36, 0x07, 0x09, 0x10, 
    0xf3, 0xf5, 0xfd, 0xe8, 0x14, 0x2b, 0x24, 0xdc, 0x0e, 0x2a, 0x00, 0x25, 
    0xe8, 0xf0, 0xcf, 0x09, 0xed, 0x04, 0xea, 0x1f, 0xe9, 0xe3, 0xd3, 0xf0, 
    0xd5, 0xfb, 0x19, 0xdb, 0xf4, 0x09, 0xdf, 0x1b, 0x00, 0xdb, 0xd8, 0x1e, 
    0x0d, 0x0d, 0xdd, 0x07, 0xff, 0x1d, 0x0c, 0x21, 0x01, 0xf0, 0x22, 0x1e, 
    0xd7, 0x04, 0xe8, 0x24, 0xf6, 0xda, 0x33, 0xde, 0xe0, 0x07, 0x36, 0x33, 
    0x16, 0xf8, 0x23, 0xef, 0x28, 0xda, 0xe5, 0xfb, 0x35, 0x05, 0xf2, 0xe3, 
    0xd4, 0x18, 0x04, 0x01, 0x2d, 0xcf, 0x0d, 0x0a, 0xd5, 0xff, 0x12, 0xf7, 
    0xd4, 0xda, 0xf9, 0x32, 0x38, 0x0a, 0x28, 0x2b, 0x04, 0xe5, 0x37, 0xd3, 
    0x00, 0x12, 0x13, 0xc6, 0xda, 0x19, 0xf6, 0xf8, 0xec, 0x3b, 0xe5, 0xc7, 
    0x28, 0x0d, 0x03, 0x05, 0xd7, 0x09, 0xe6, 0xea, 0xb9, 0xf6, 0x0a, 0xca, 
    0xe0, 0xb4, 0xbe, 0xd1, 0x3e, 0xd7, 0xc1, 0xc2, 0xf1, 0x24, 0xb7, 0xe2, 
    0x42, 0x25, 0xcb, 0xc9, 0xc5, 0xe3, 0x25, 0xed, 0x0d, 0xbe, 0x04, 0xdf, 
    0x2f, 0xe9, 0xdd, 0xe9, 0xf1, 0xea, 0x2a, 0x2d, 0xc1, 0xf3, 0x31, 0x0e, 
    0xd6, 0x12, 0xc2, 0xdd, 0xd5, 0x16, 0xfa, 0xe0, 0x27, 0x2f, 0xfe, 0x46, 
    0xb7, 0xf7, 0x22, 0x39, 0xc2, 0x1a, 0x47, 0xe5, 0xc2, 0xbb, 0xb7, 0xe3, 
    0x17, 0x48, 0x33, 0x39, 0xce, 0x5a, 0x08, 0x16, 0x4d, 0xd4, 0x61, 0x01, 
    0x81, 0x12, 0xa3, 0xef, 0xc3, 0x73, 0x41, 0x1a, 0xfa, 0x57, 0xd2, 0xb5, 
    0x20, 0xfa, 0x18, 0x4a, 0xbc, 0xe8, 0xde, 0xed, 0x00, 0xc2, 0xd7, 0xaa, 
    0xce, 0x45, 0x21, 0x23, 0x3c, 0xc4, 0xdd, 0x2f, 0xb7, 0x0d, 0x1e, 0xd0, 
    0x1c, 0x26, 0xb9, 0xcd, 0xbc, 0x16, 0x05, 0x01, 0x0e, 0xe9, 0x1e, 0xd5, 
    0x48, 0x1f, 0xbe, 0xd9, 0x25, 0x21, 0x47, 0xe7, 0x49, 0x42, 0x25, 0xcb, 
    0xdc, 0x28, 0xf1, 0x36, 0xb4, 0x1a, 0xf0, 0x06, 0x2d, 0xdd, 0x29, 0x0d, 
    0xbb, 0x43, 0xff, 0xf3, 0x42, 0xce, 0x0c, 0xef, 0x3b, 0x1e, 0x32, 0x17, 
    0xcd, 0x11, 0xc0, 0x1c, 0x14, 0x21, 0x48, 0xc8, 0xec, 0xe6, 0x05, 0xcc, 
    0xef, 0xfc, 0x05, 0x34, 0xe1, 0xe2, 0xef, 0x03, 0x04, 0x04, 0xe8, 0x15, 
    0x30, 0xdb, 0x1f, 0x35, 0xbb, 0x10, 0xd8, 0xf8, 0x36, 0x0e, 0xc8, 0xf6, 
    0xdd, 0x3e, 0xc7, 0xc5, 0xcf, 0xd2, 0x3a, 0x35, 0xeb, 0xc1, 0x18, 0x29, 
    0x1a, 0xf8, 0xde, 0x20, 0x1c, 0xcf, 0xcc, 0xee, 0xcd, 0xd5, 0xda, 0xee, 
    0xd2, 0x39, 0xc5, 0xd2, 0xfa, 0x29, 0x2c, 0xeb, 0xc5, 0xe0, 0x0e, 0x1b, 
    0xd2, 0x3d, 0xff, 0x0f, 0xe0, 0x2b, 0xe8, 0xfe, 0x2c, 0xea, 0xc3, 0x25, 
    0x31, 0x1a, 0x29, 0x0f, 0x22, 0xcd, 0xe6, 0x06, 0x2f, 0x09, 0x19, 0xca, 
    0xe7, 0xfd, 0xc8, 0x2d, 0x34, 0xf1, 0x1c, 0xcb, 0x36, 0x2b, 0xe9, 0x15, 
    0x16, 0xff, 0xc6, 0x37, 0xc1, 0x14, 0x13, 0xe6, 0xed, 0x07, 0xdc, 0xeb, 
    0xf5, 0x1c, 0x0c, 0xd0, 0xfc, 0x0c, 0xd5, 0xca, 0x3a, 0x1e, 0xfc, 0x02, 
    0x46, 0x06, 0xdb, 0x46, 0x4d, 0xfe, 0x40, 0x94, 0x4c, 0x37, 0x58, 0xbc, 
    0xf0, 0x41, 0x5b, 0xe6, 0xea, 0x23, 0x4d, 0xcf, 0x08, 0xff, 0xab, 0x2d, 
    0x24, 0x16, 0x06, 0x44, 0xe3, 0x0c, 0xe5, 0x7f, 0x2d, 0xe2, 0x0b, 0xc3, 
    0x15, 0x29, 0xfa, 0xef, 0x26, 0x2d, 0x09, 0x2e, 0xd1, 0x25, 0xea, 0x20, 
    0x02, 0x1c, 0xc4, 0x34, 0x31, 0x19, 0x26, 0x18, 0xe1, 0x17, 0x3f, 0x16, 
    0x3e, 0x23, 0xdb, 0xcc, 0x08, 0xe9, 0xee, 0xc9, 0xda, 0x2b, 0xde, 0x25, 
    0xce, 0x0a, 0x2b, 0xec, 0xd9, 0x36, 0xdc, 0xc3, 0xf0, 0xdd, 0x13, 0x11, 
    0xc6, 0xfa, 0x25, 0x1c, 0x10, 0xd6, 0x30, 0x35, 0xee, 0x19, 0x02, 0x31, 
    0xeb, 0xda, 0xeb, 0x3d, 0x36, 0x08, 0x05, 0xdb, 0xf7, 0x12, 0xc6, 0x31, 
    0x12, 0x37, 0xe3, 0x29, 0xd4, 0x33, 0x3b, 0xd3, 0x3a, 0x0f, 0x06, 0xce, 
    0xf0, 0x1d, 0xfd, 0x2c, 0xe2, 0x1e, 0x15, 0x1c, 0x18, 0xd1, 0xe0, 0x00, 
    0xdc, 0x2e, 0xda, 0xe7, 0x16, 0xe2, 0x1b, 0x19, 0x13, 0xcf, 0x02, 0xef, 
    0x19, 0x0b, 0xfe, 0x2c, 0xfd, 0xee, 0xde, 0xf1, 0x05, 0x30, 0x06, 0x11, 
    0xed, 0x0e, 0x29, 0xf9, 0x2c, 0x0c, 0xd7, 0x1f, 0xd1, 0x13, 0xd6, 0x05, 
    0x0a, 0xf7, 0xeb, 0x17, 0x12, 0xe8, 0xe2, 0xe6, 0x08, 0xd6, 0xf2, 0xce, 
    0x24, 0xf8, 0x0c, 0x2d, 0xce, 0x26, 0x05, 0xf3, 0xf7, 0x27, 0xfa, 0x05, 
    0x2a, 0xeb, 0x29, 0xdf, 0xd8, 0x28, 0xf9, 0x0f, 0xde, 0xfb, 0xd9, 0x19, 
    0xf9, 0x32, 0xfb, 0x20, 0x02, 0x2a, 0xea, 0x0a, 0xf3, 0xf4, 0x03, 0xf9, 
    0x1c, 0xd7, 0x18, 0x12, 0xf1, 0xf7, 0xd0, 0xda, 0xfa, 0x33, 0x93, 0x30, 
    0xf1, 0xf1, 0xf8, 0x81, 0xd1, 0x0b, 0xd6, 0xc5, 0xd9, 0x3e, 0x07, 0x0c, 
    0x4a, 0x38, 0x3c, 0x07, 0x32, 0x29, 0x8e, 0x5a, 0x09, 0xd1, 0x26, 0x05, 
    0xcc, 0xdb, 0x03, 0x0b, 0xdc, 0x16, 0x04, 0xfb, 0xef, 0xe0, 0x04, 0xd2, 
    0x12, 0xcf, 0xe8, 0x0d, 0xef, 0x14, 0xd7, 0x13, 0x19, 0xda, 0x1e, 0xd3, 
    0x30, 0xd6, 0xd0, 0x27, 0x1b, 0xe3, 0xd5, 0xf4, 0xfc, 0x1d, 0x2c, 0x2e, 
    0xd7, 0x0d, 0x06, 0xf3, 0xd1, 0xf8, 0xd3, 0x1f, 0x22, 0x01, 0x26, 0xd0, 
    0x30, 0x14, 0xe9, 0x30, 0x1f, 0xf5, 0xfd, 0xea, 0xf8, 0xef, 0x06, 0x20, 
    0x0b, 0xf4, 0x15, 0xda, 0x32, 0xd7, 0x17, 0x11, 0x19, 0xdb, 0x2f, 0x00, 
    0xf7, 0x04, 0xd6, 0x21, 0x20, 0xe9, 0x19, 0xe4, 0x08, 0x1a, 0x13, 0x16, 
    0x00, 0xd6, 0x05, 0xfd, 0x2b, 0x22, 0xe3, 0x04, 0x0b, 0xf1, 0xd2, 0x01, 
    0x2d, 0x25, 0xd6, 0x0e, 0xda, 0x4e, 0xb7, 0xd4, 0x3e, 0x26, 0x4c, 0x4b, 
    0x46, 0x39, 0x40, 0xd7, 0x3b, 0xf1, 0x0a, 0xcc, 0x56, 0x24, 0xa8, 0xbd, 
    0xd3, 0x58, 0xc7, 0x31, 0xde, 0xf1, 0xb9, 0xcc, 0x29, 0x1e, 0xeb, 0x28, 
    0x00, 0xef, 0xfe, 0x0e, 0xbb, 0xac, 0x13, 0xd0, 0x53, 0xe0, 0xec, 0x3e, 
    0x41, 0xe1, 0x10, 0x1d, 0xf1, 0x1f, 0xbe, 0xf4, 0x2a, 0x0a, 0x0d, 0xba, 
    0x2d, 0x04, 0x09, 0x12, 0xc4, 0x53, 0x08, 0x1e, 0xbe, 0xe8, 0x2f, 0x29, 
    0xe1, 0x47, 0xf1, 0x33, 0x15, 0xfd, 0xcd, 0x43, 0x49, 0xfc, 0xcf, 0xcd, 
    0x59, 0x16, 0xe8, 0x2d, 0xfa, 0x0c, 0xcf, 0xc6, 0xae, 0xfb, 0xbe, 0x0f, 
    0xf1, 0xb3, 0xa9, 0x48, 0x94, 0x15, 0x0c, 0x70, 0x57, 0xa9, 0x6e, 0xf7, 
    0xa9, 0xfb, 0xd1, 0xd0, 0xb5, 0x7f, 0xec, 0xea, 0x2a, 0x56, 0x3c, 0x97, 
    0x61, 0xfe, 0x09, 0x43, 0x02, 0x2e, 0x32, 0x72, 0xc4, 0xa1, 0xac, 0x9b, 
    0x54, 0x4c, 0xac, 0xbf, 0x50, 0xd9, 0xc6, 0x0a, 0x37, 0xb3, 0xcf, 0xf0, 
    0xd7, 0x51, 0xcb, 0xd2, 0xb7, 0x43, 0xae, 0xf3, 0x19, 0x02, 0x02, 0x46, 
    0xdc, 0xc2, 0x31, 0x02, 0x29, 0x2f, 0x37, 0xd0, 0xae, 0xf9, 0x45, 0xc2, 
    0xc9, 0xb6, 0x54, 0x59, 0x48, 0xc8, 0xd0, 0x2c, 0xd7, 0x4c, 0xc0, 0x35, 
    0x34, 0xc9, 0xcc, 0x45, 0xca, 0xbf, 0x56, 0xd1, 0xda, 0x0b, 0xd7, 0xcd, 
    0xdd, 0x4e, 0xe9, 0x37, 0xd6, 0x49, 0xd2, 0x20, 0xe7, 0xf7, 0xcb, 0x2f, 
    0x15, 0x28, 0xa6, 0xb1, 0xb5, 0xd9, 0x41, 0x43, 0x13, 0x46, 0x06, 0x11, 
    0x2b, 0x4e, 0x40, 0x20, 0x45, 0xff, 0xf6, 0xf4, 0x2b, 0x4b, 0x52, 0xad, 
    0x07, 0xd9, 0xe1, 0xea, 0x36, 0x40, 0xc9, 0xe6, 0x24, 0x0e, 0xee, 0x2c, 
    0x42, 0xe8, 0xfb, 0xff, 0x22, 0x1a, 0xf1, 0x37, 0x33, 0x0c, 0xdd, 0xe4, 
    0xec, 0xdd, 0xff, 0x42, 0xc6, 0x00, 0x3c, 0x2d, 0x0b, 0xd5, 0xcb, 0xfd, 
    0xca, 0x14, 0xe1, 0xf3, 0x1f, 0x28, 0xf3, 0x23, 0xe8, 0xd0, 0xc5, 0x2c, 
    0xbe, 0x3b, 0xd9, 0xe1, 0x22, 0x21, 0x26, 0x0d, 0xf7, 0xcd, 0xcb, 0x3b, 
    0x01, 0x3a, 0xd1, 0xf3, 0xdc, 0x2b, 0x35, 0x24, 0x33, 0x40, 0xcd, 0xf9, 
    0xf8, 0x38, 0x26, 0xc3, 0x0d, 0xda, 0xeb, 0xf6, 0x0f, 0xfc, 0x29, 0x20, 
    0x1f, 0xe4, 0x41, 0xbe, 0x3d, 0x40, 0xc2, 0xee, 0x05, 0x28, 0xe2, 0x36, 
    0xe2, 0x29, 0xe9, 0x24, 0x51, 0xbd, 0x09, 0xfd, 0x81, 0xf5, 0xe2, 0x00, 
    0xad, 0x32, 0x14, 0x64, 0x3a, 0x4d, 0x34, 0xec, 0x28, 0x2a, 0xdc, 0x6f, 
    0xe1, 0xe3, 0x43, 0x17, 0xe3, 0xd3, 0xf5, 0xa7, 0xf4, 0xf7, 0xc1, 0xd5, 
    0x2e, 0x10, 0x08, 0x01, 0xc8, 0x3d, 0xcd, 0x32, 0xd3, 0xc8, 0x1a, 0x03, 
    0x02, 0xfb, 0xd1, 0x2f, 0xcb, 0x33, 0x1c, 0xc2, 0x3e, 0x04, 0xf2, 0xf5, 
    0xef, 0xfc, 0x3a, 0xfb, 0x29, 0x12, 0xde, 0x10, 0xe7, 0x1b, 0x2b, 0xf1, 
    0xd8, 0x07, 0xcc, 0x0f, 0x2c, 0xc7, 0xfc, 0xd3, 0xe0, 0xd0, 0xeb, 0xce, 
    0xf0, 0x42, 0xd4, 0x11, 0x11, 0x2c, 0xd5, 0xcd, 0x0f, 0x25, 0x35, 0x15, 
    0x13, 0x13, 0x05, 0x3a, 0xd6, 0x1f, 0x0c, 0xd8, 0xe9, 0xc2, 0x30, 0x12, 
    0x3a, 0x1d, 0x05, 0xec, 0x36, 0xcd, 0x30, 0xee, 0xf5, 0xf4, 0xf2, 0xf5, 
    0x0d, 0xc7, 0xfb, 0xc7, 0x24, 0xca, 0xdb, 0xce, 0x6a, 0xe5, 0xff, 0xff, 
    0x04, 0x00, 0x00, 0x00, 0x40, 0x00, 0x00, 0x00, 0x77, 0xf7, 0xff, 0xff, 
    0xdf, 0x17, 0x00, 0x00, 0x72, 0x04, 0x00, 0x00, 0x62, 0x17, 0x00, 0x00, 
    0xbf, 0x19, 0x00, 0x00, 0x90, 0x1d, 0x00, 0x00, 0x09, 0x15, 0x00, 0x00, 
    0xc7, 0x1b, 0x00, 0x00, 0xaa, 0x17, 0x00, 0x00, 0xbb, 0x16, 0x00, 0x00, 
    0xdf, 0x13, 0x00, 0x00, 0x42, 0x18, 0x00, 0x00, 0x0e, 0x1e, 0x00, 0x00, 
    0xe3, 0x0a, 0x00, 0x00, 0x50, 0x26, 0x00, 0x00, 0xf4, 0x19, 0x00, 0x00, 
    0xb6, 0xe5, 0xff, 0xff, 0x04, 0x00, 0x00, 0x00, 0x00, 0x07, 0x00, 0x00, 
    0x38, 0x36, 0x18, 0x05, 0xc0, 0x26, 0x28, 0xc1, 0x1d, 0x47, 0x1f, 0x1c, 
    0x00, 0x23, 0xd2, 0x3b, 0xc2, 0x3a, 0x00, 0x27, 0x3e, 0x32, 0xef, 0xbb, 
    0x25, 0xc0, 0xbc, 0x43, 0x0a, 0x2a, 0xd3, 0xbc, 0xe9, 0x7f, 0x89, 0xc1, 
    0x2f, 0xa2, 0x3b, 0xa0, 0x41, 0xa4, 0x29, 0xfe, 0x7c, 0xc4, 0xb2, 0xe0, 
    0x44, 0x4d, 0x91, 0xad, 0x73, 0xed, 0x53, 0x02, 0x07, 0xd1, 0xe6, 0xbd, 
    0x08, 0xee, 0xa5, 0x0c, 0xbf, 0x00, 0x45, 0xed, 0x42, 0xb7, 0x43, 0xf5, 
    0xc9, 0x2b, 0xc0, 0x14, 0x43, 0xed, 0x2f, 0x34, 0x48, 0xc2, 0x38, 0x21, 
    0xbf, 0xc5, 0x3f, 0x32, 0xcd, 0x39, 0xbb, 0xc8, 0xf4, 0x0a, 0xdf, 0x08, 
    0x3b, 0xdb, 0xcb, 0xc1, 0xd8, 0xec, 0xd9, 0xbf, 0xdc, 0xe6, 0x2f, 0x39, 
    0x28, 0x45, 0xf3, 0x0f, 0x1d, 0xf9, 0xdd, 0x2b, 0xd2, 0x23, 0xc1, 0xfa, 
    0xcf, 0x15, 0x4c, 0xfd, 0x3d, 0xc4, 0xc0, 0x0b, 0x35, 0x17, 0x05, 0xc8, 
    0x3b, 0xe4, 0xf1, 0x30, 0x3b, 0xb5, 0xff, 0x45, 0x46, 0xc2, 0xb5, 0x49, 
    0x12, 0x38, 0xca, 0xa1, 0x5f, 0x01, 0x63, 0x97, 0x7b, 0x0b, 0x7f, 0xae, 
    0x23, 0x95, 0xa9, 0xb8, 0x09, 0xa0, 0xf3, 0x69, 0x09, 0x2f, 0xf0, 0x4f, 
    0xad, 0x23, 0x21, 0x3d, 0xd4, 0xf3, 0x59, 0x53, 0x2b, 0x23, 0x4a, 0xe6, 
    0xe0, 0x11, 0xe9, 0x4a, 0x03, 0xb9, 0xc0, 0xf0, 0x0d, 0xff, 0x1f, 0xe3, 
    0xdc, 0xc6, 0xd4, 0x45, 0x03, 0xf8, 0xf9, 0x3d, 0x27, 0x09, 0xde, 0xde, 
    0x32, 0xcc, 0x43, 0x4c, 0x0f, 0xba, 0x3e, 0x1f, 0x26, 0xcf, 0xe6, 0xef, 
    0xbb, 0xf0, 0x39, 0x47, 0xb5, 0xc4, 0xca, 0xd2, 0xee, 0xbe, 0xea, 0x36, 
    0xee, 0xff, 0xab, 0xa8, 0xe3, 0xc8, 0xe2, 0xc7, 0x4d, 0xaa, 0xa9, 0xd5, 
    0x51, 0xfa, 0xef, 0x37, 0x33, 0x37, 0x05, 0xa8, 0xad, 0xc0, 0x22, 0xdf, 
    0x16, 0xa5, 0xb8, 0x3e, 0x4f, 0xa5, 0x2d, 0xe7, 0xde, 0x59, 0x9f, 0x4d, 
    0xec, 0x7f, 0xd8, 0x47, 0x5c, 0x34, 0xe1, 0x20, 0x23, 0x01, 0xe6, 0xb1, 
    0xe2, 0x3b, 0xae, 0xef, 0xa7, 0xb4, 0xa7, 0xce, 0x15, 0xfd, 0xe7, 0xf3, 
    0xd9, 0xc4, 0x28, 0x40, 0xc0, 0xcf, 0x20, 0xc4, 0xfc, 0x2d, 0xfa, 0xd2, 
    0xc0, 0x4d, 0xa7, 0xf6, 0xb9, 0xab, 0xb6, 0x07, 0xab, 0xac, 0xc8, 0x13, 
    0xf5, 0xb6, 0xb9, 0xf4, 0xb0, 0xd7, 0x25, 0x59, 0x57, 0x57, 0xf4, 0x4a, 
    0x40, 0xdb, 0x45, 0x49, 0x06, 0x50, 0x5a, 0x53, 0xf1, 0x13, 0x59, 0xaf, 
    0x29, 0xfa, 0x0b, 0x26, 0xe7, 0xad, 0x1d, 0xbc, 0x1f, 0xbc, 0x5a, 0xe5, 
    0xf4, 0x21, 0x42, 0xfe, 0xc5, 0x0f, 0x1d, 0x48, 0x29, 0x1e, 0xe9, 0xe7, 
    0xb0, 0xbe, 0xb4, 0x22, 0x51, 0xdb, 0x47, 0x41, 0xc7, 0xb5, 0x2c, 0x7f, 
    0x9e, 0x29, 0xa2, 0x06, 0x17, 0x7c, 0x04, 0x7c, 0xc9, 0xf6, 0x7a, 0x59, 
    0x13, 0x22, 0x5c, 0xc4, 0xf8, 0xc7, 0x36, 0xdf, 0xbb, 0xd8, 0x9e, 0x21, 
    0xa2, 0xea, 0xae, 0xa7, 0x42, 0xd0, 0x5c, 0x06, 0x57, 0x18, 0xcf, 0xc8, 
    0x37, 0x1e, 0xcb, 0xaa, 0x0b, 0xb9, 0xd8, 0xd4, 0x4a, 0x14, 0xd7, 0xf2, 
    0xba, 0xa0, 0x43, 0x5e, 0x9f, 0xa3, 0x25, 0xf1, 0x03, 0x9b, 0xa3, 0xd9, 
    0xc1, 0xad, 0xc2, 0xf3, 0xb8, 0xae, 0x63, 0x09, 0x02, 0x5c, 0x27, 0xcf, 
    0xe7, 0xae, 0x63, 0x41, 0xd3, 0x25, 0xaf, 0x50, 0xbf, 0xee, 0x23, 0xf5, 
    0x16, 0x0b, 0x30, 0x39, 0x38, 0xfb, 0x1a, 0xf2, 0xb1, 0x46, 0x33, 0xec, 
    0x04, 0x0a, 0x35, 0x52, 0xd4, 0x38, 0xf0, 0x02, 0x05, 0xed, 0xb0, 0x04, 
    0x2a, 0x6f, 0xe4, 0x1d, 0x14, 0x81, 0x40, 0xa7, 0x6e, 0xd4, 0x31, 0xc1, 
    0x3c, 0x0a, 0xbb, 0x93, 0xc3, 0xdc, 0x17, 0x7c, 0x33, 0x2b, 0x36, 0x71, 
    0x08, 0xec, 0x50, 0x01, 0x77, 0x57, 0x53, 0x18, 0xf4, 0x2b, 0x27, 0x0a, 
    0xfe, 0x04, 0x19, 0xf1, 0xb9, 0xc7, 0xcb, 0x27, 0xbf, 0x4e, 0x43, 0xc3, 
    0xb4, 0xc1, 0xda, 0x32, 0xef, 0x3c, 0xad, 0x50, 0xea, 0xf8, 0x45, 0x2d, 
    0xcb, 0x4c, 0xc6, 0xf7, 0xe8, 0xc9, 0x35, 0xe1, 0x2a, 0x33, 0xbf, 0xfa, 
    0xb2, 0xc9, 0x4b, 0x23, 0xe4, 0xb0, 0x2b, 0x08, 0xbb, 0xf9, 0xdc, 0xfb, 
    0xc7, 0xd1, 0xf8, 0x08, 0xce, 0xdb, 0xb5, 0x32, 0xed, 0x21, 0x25, 0x30, 
    0xe8, 0x34, 0x23, 0xb6, 0xbf, 0xdf, 0xd8, 0xed, 0xf4, 0x1c, 0xe9, 0x40, 
    0xef, 0xb6, 0x0e, 0xdc, 0xdd, 0x84, 0x43, 0x1e, 0xce, 0x0c, 0xf5, 0xdf, 
    0xe0, 0x0f, 0x5c, 0x04, 0x48, 0x17, 0xe2, 0x65, 0xfe, 0xaf, 0x7b, 0x19, 
    0x81, 0x5d, 0x02, 0x50, 0xf7, 0x5e, 0x47, 0x01, 0x10, 0xe4, 0x49, 0x43, 
    0x1c, 0xe5, 0x3b, 0xcf, 0xf6, 0x47, 0xf3, 0x37, 0x0a, 0xf9, 0x05, 0x15, 
    0x47, 0xf1, 0x4c, 0xdf, 0xe1, 0x03, 0x36, 0x0f, 0x25, 0xef, 0x13, 0x17, 
    0x1c, 0x48, 0x27, 0xe4, 0x32, 0x4a, 0x10, 0x3f, 0x21, 0x2e, 0x30, 0xeb, 
    0x1c, 0x02, 0xda, 0x16, 0x3c, 0xda, 0xba, 0x26, 0x3f, 0x15, 0xf1, 0x18, 
    0x3b, 0x31, 0xa8, 0x23, 0x5a, 0x38, 0x19, 0x5c, 0x25, 0xe1, 0xa4, 0xeb, 
    0x0c, 0xca, 0xab, 0x13, 0x28, 0x18, 0x30, 0x47, 0xb0, 0xf7, 0x59, 0x5d, 
    0x12, 0x46, 0x5b, 0xa3, 0xc0, 0xff, 0x33, 0xc3, 0xd0, 0xb8, 0x17, 0x57, 
    0xb6, 0x74, 0xcf, 0x7f, 0x20, 0xd8, 0x44, 0xd1, 0xc4, 0x70, 0xfa, 0xea, 
    0xb4, 0x00, 0x1e, 0xee, 0x28, 0x28, 0xc9, 0x9c, 0xee, 0x1a, 0xe3, 0xa0, 
    0x31, 0xb6, 0xa1, 0xb7, 0x44, 0xa5, 0x04, 0x2c, 0xc7, 0xad, 0xde, 0xe2, 
    0xd0, 0xbf, 0xdf, 0x2f, 0xdd, 0x20, 0x3a, 0x44, 0xcc, 0x1a, 0xb5, 0x06, 
    0x01, 0xba, 0xbd, 0x1c, 0x41, 0xac, 0x18, 0x38, 0xbb, 0xa6, 0x12, 0xde, 
    0xbc, 0xce, 0xe9, 0x18, 0x5b, 0xb2, 0xb6, 0x24, 0x0e, 0xa4, 0xa7, 0x53, 
    0xde, 0xee, 0x37, 0xb3, 0xd0, 0x2a, 0x0b, 0xa8, 0x20, 0xd2, 0xf0, 0xfa, 
    0xa5, 0xb4, 0xd4, 0x04, 0x14, 0x2d, 0x09, 0xfb, 0x50, 0x3c, 0xf8, 0x51, 
    0x11, 0x2e, 0xf3, 0xe8, 0xfb, 0xa8, 0xd8, 0xaf, 0x51, 0xd0, 0xad, 0x2c, 
    0xc3, 0x9d, 0x3a, 0x3c, 0xd1, 0x4a, 0x87, 0x3e, 0xbb, 0x69, 0xe4, 0x0f, 
    0x75, 0x2f, 0xf8, 0x5d, 0xeb, 0xd9, 0x18, 0xe6, 0x54, 0xd1, 0x7f, 0xa8, 
    0xdb, 0x9c, 0x57, 0xdc, 0x6c, 0xe7, 0xa4, 0x02, 0xc4, 0x1e, 0xd1, 0x4e, 
    0x39, 0x27, 0x4f, 0xfc, 0xec, 0x2d, 0x2d, 0xe7, 0xc7, 0x0b, 0xd1, 0x45, 
    0x33, 0xd2, 0x4c, 0xf0, 0xc4, 0x16, 0xf9, 0xd3, 0xf4, 0xce, 0xe0, 0xcc, 
    0x11, 0x14, 0xfc, 0x06, 0x3a, 0xfd, 0xc0, 0x23, 0x22, 0x09, 0xb7, 0xc9, 
    0xfa, 0x1e, 0x2d, 0x44, 0xc2, 0x3e, 0xbd, 0xac, 0xd0, 0x05, 0x2c, 0xe5, 
    0x12, 0xd6, 0xea, 0x25, 0xea, 0xca, 0x1b, 0xc4, 0x11, 0x38, 0xe1, 0x13, 
    0x0e, 0xcb, 0xff, 0x18, 0xde, 0xc8, 0xe1, 0x23, 0x0c, 0xe6, 0xcc, 0x33, 
    0xf5, 0x2f, 0xc6, 0xd0, 0x1e, 0x30, 0x9a, 0xf5, 0x53, 0x9a, 0x7f, 0xca, 
    0x66, 0xda, 0x5b, 0xc0, 0x12, 0x04, 0xc0, 0xb4, 0xe2, 0x15, 0x12, 0x31, 
    0xfe, 0x4b, 0x50, 0x02, 0x10, 0x0f, 0x31, 0xef, 0x2b, 0x22, 0x07, 0x14, 
    0x28, 0x07, 0x27, 0x28, 0xe5, 0x14, 0x10, 0x2a, 0xca, 0xfc, 0x06, 0x37, 
    0x38, 0x2d, 0x13, 0x0f, 0xd0, 0x29, 0xc6, 0x2b, 0x12, 0xf1, 0x27, 0x33, 
    0xf0, 0x13, 0xc9, 0x3c, 0x1c, 0x0c, 0x3a, 0x06, 0x2a, 0xdb, 0x38, 0x28, 
    0xcd, 0x31, 0x16, 0xfa, 0x33, 0x27, 0x00, 0x1c, 0x3b, 0xe5, 0x23, 0x2b, 
    0x30, 0xb7, 0x33, 0x32, 0x1f, 0xf3, 0xfa, 0xc7, 0xd2, 0xf7, 0xaa, 0xd4, 
    0x45, 0x4e, 0xd9, 0xe0, 0xd6, 0x58, 0x08, 0xcf, 0xf0, 0x33, 0x04, 0x48, 
    0x22, 0xdf, 0xed, 0xeb, 0x1f, 0xbe, 0xfa, 0x26, 0x2c, 0xd5, 0x62, 0x19, 
    0xc4, 0x3f, 0x07, 0xea, 0x8e, 0x09, 0xf3, 0x3b, 0x77, 0x09, 0xd7, 0x7f, 
    0xc4, 0x8f, 0x48, 0x5e, 0x2a, 0xee, 0xa4, 0x50, 0x95, 0xd7, 0x10, 0x27, 
    0x36, 0x72, 0x5e, 0xde, 0xbe, 0xeb, 0x27, 0x4f, 0xdd, 0xd7, 0xb5, 0x22, 
    0x1e, 0x3c, 0x0a, 0x27, 0x58, 0xe4, 0xe1, 0xe9, 0xe8, 0x20, 0x2e, 0xe2, 
    0xfa, 0x51, 0x22, 0xf5, 0xc1, 0xf0, 0xc7, 0xce, 0x14, 0x3c, 0x30, 0x43, 
    0xe8, 0x53, 0xed, 0xca, 0xb7, 0xc7, 0x4c, 0x4f, 0x17, 0x4b, 0x38, 0xc6, 
    0xea, 0x05, 0x11, 0x44, 0x0d, 0xd0, 0x43, 0xda, 0x39, 0xc2, 0x1a, 0xdd, 
    0x3c, 0xdd, 0xf5, 0x1e, 0xc3, 0xc7, 0xcc, 0xfb, 0x11, 0xf8, 0x0c, 0xf2, 
    0x10, 0x04, 0xc7, 0x1b, 0xe2, 0xc9, 0xd2, 0xdb, 0x3e, 0x2b, 0x12, 0xc3, 
    0xd3, 0x66, 0x8f, 0xca, 0x7f, 0x9f, 0x37, 0xe9, 0x7c, 0xfe, 0x5a, 0xdc, 
    0xe7, 0x01, 0xc2, 0xb8, 0xe1, 0xca, 0x6d, 0xf4, 0x0b, 0x0a, 0xcb, 0xef, 
    0xb8, 0x3b, 0x09, 0x2a, 0x30, 0x5f, 0x2f, 0x5d, 0x3c, 0x10, 0xc6, 0xf8, 
    0x27, 0x27, 0x31, 0xfd, 0xfd, 0xef, 0xea, 0x26, 0xe9, 0xe8, 0xce, 0x2d, 
    0x2b, 0x33, 0xcc, 0xe2, 0xee, 0x0d, 0xcb, 0xc1, 0xf5, 0xf4, 0x07, 0xc3, 
    0x42, 0x07, 0xe1, 0xcd, 0x2a, 0x35, 0x31, 0x2e, 0x3e, 0x28, 0xde, 0x2b, 
    0xe8, 0x1e, 0xdf, 0x26, 0x12, 0x18, 0x41, 0xd0, 0x24, 0x16, 0xc7, 0x42, 
    0xf1, 0xb8, 0x1f, 0x36, 0x2b, 0xe6, 0xd1, 0xd3, 0x37, 0x1d, 0xc5, 0x41, 
    0x1e, 0xf1, 0x3b, 0x03, 0x43, 0x39, 0x34, 0xb3, 0x30, 0xe6, 0xf9, 0x41, 
    0x3b, 0xf5, 0xc0, 0x31, 0xcf, 0x0f, 0x7f, 0xf4, 0x46, 0x51, 0x25, 0x56, 
    0xbc, 0x51, 0x49, 0x2a, 0xf6, 0x2b, 0x1b, 0x34, 0x0d, 0x9d, 0x50, 0x62, 
    0xe8, 0x38, 0xac, 0x26, 0x2a, 0x0d, 0xda, 0x26, 0xea, 0x44, 0x5d, 0x08, 
    0x19, 0x00, 0xfd, 0x44, 0x38, 0x0a, 0x22, 0xf1, 0xe2, 0x46, 0xe7, 0x29, 
    0xc7, 0xba, 0x0c, 0xcc, 0xb4, 0xda, 0xb8, 0x27, 0x16, 0x09, 0x30, 0xd1, 
    0x30, 0x04, 0x42, 0x07, 0x14, 0xf8, 0xbd, 0x4c, 0x23, 0x37, 0x3b, 0x34, 
    0x09, 0xf3, 0x20, 0x30, 0xee, 0xe6, 0x49, 0x11, 0xcb, 0xcc, 0x1e, 0x0f, 
    0xc5, 0xc4, 0xd9, 0x46, 0x2a, 0xcf, 0x16, 0xbb, 0xe2, 0x21, 0xcd, 0xfb, 
    0xd6, 0x44, 0xc6, 0x3c, 0x1c, 0x07, 0x19, 0xe7, 0x0a, 0xfa, 0xbc, 0x14, 
    0xd5, 0xd2, 0x05, 0xc0, 0xca, 0xdd, 0x21, 0x42, 0x02, 0x4f, 0xf8, 0xba, 
    0x23, 0xd3, 0x61, 0x06, 0xee, 0xac, 0xe8, 0xf2, 0x7f, 0xb0, 0x0f, 0xb3, 
    0x0a, 0x9c, 0x01, 0x01, 0xc4, 0x4a, 0xfa, 0x5e, 0xc9, 0x28, 0x3b, 0x4e, 
    0xd4, 0x35, 0x3e, 0x26, 0x11, 0x13, 0x2a, 0xe4, 0xf4, 0xdc, 0xc5, 0x44, 
    0xdd, 0xfd, 0x34, 0xe5, 0x07, 0xf8, 0x2b, 0x41, 0x12, 0x0a, 0x3d, 0xdd, 
    0xd0, 0xfd, 0x16, 0xf2, 0x1b, 0x35, 0xc6, 0xfd, 0x32, 0xf6, 0x23, 0xe1, 
    0x40, 0xc4, 0x32, 0xd6, 0xed, 0xbe, 0xed, 0xfa, 0x16, 0xeb, 0x04, 0x31, 
    0x24, 0xf2, 0xdd, 0xcd, 0xbd, 0xd7, 0x27, 0xc0, 0xf0, 0x02, 0xb7, 0xe8, 
    0xf5, 0x11, 0x19, 0xd5, 0xe2, 0x1d, 0xb8, 0xd7, 0xf5, 0x2a, 0x47, 0xf7, 
    0x09, 0xdb, 0xcf, 0x0a, 0xf4, 0xcc, 0xd2, 0x02, 0x19, 0xbc, 0xf8, 0xe7, 
    0x34, 0x81, 0x07, 0xf3, 0x0e, 0x0a, 0xc8, 0x45, 0xce, 0xfa, 0x48, 0x27, 
    0xf5, 0x54, 0x48, 0x64, 0xe7, 0x98, 0x2c, 0x3a, 0xbe, 0x36, 0xdb, 0x53, 
    0xf0, 0xfd, 0x14, 0x55, 0xfc, 0x2d, 0x37, 0x18, 0x09, 0x46, 0x33, 0xb7, 
    0x27, 0xc4, 0xf0, 0x37, 0xde, 0xf6, 0xfb, 0xe9, 0x2b, 0xc4, 0xbd, 0x14, 
    0x1d, 0x1c, 0xc9, 0x16, 0x1f, 0x36, 0xe2, 0xc0, 0xc5, 0xfb, 0xf9, 0x28, 
    0x44, 0x0d, 0xe9, 0xd3, 0x02, 0xea, 0xea, 0xb9, 0x31, 0x37, 0xbd, 0x3e, 
    0xfe, 0x27, 0xf3, 0x34, 0xda, 0xd0, 0xca, 0x22, 0xd5, 0x10, 0xf1, 0xd4, 
    0x39, 0x3c, 0xed, 0x1c, 0x24, 0x20, 0xee, 0x38, 0x31, 0x30, 0xc6, 0x3c, 
    0x30, 0x3e, 0x17, 0x16, 0x22, 0x1e, 0x25, 0xf0, 0x18, 0x03, 0xe1, 0xf8, 
    0x08, 0x1d, 0xb6, 0xcd, 0x59, 0x1a, 0xee, 0xad, 0x37, 0xea, 0x47, 0xb5, 
    0x33, 0xd1, 0xe8, 0xa3, 0x6c, 0x27, 0x0b, 0x8e, 0xe3, 0x52, 0x81, 0xf2, 
    0x0a, 0xca, 0x5f, 0xeb, 0x6a, 0xe0, 0x58, 0xb0, 0x49, 0xaf, 0x97, 0xa0, 
    0xec, 0x1b, 0x1f, 0xdd, 0xf2, 0x1d, 0xc1, 0xc2, 0xc4, 0xe0, 0xc5, 0xbc, 
    0xf5, 0x0c, 0xc6, 0xd8, 0xc9, 0xc4, 0x1b, 0x1a, 0x32, 0x39, 0x27, 0x1b, 
    0x3e, 0xda, 0xce, 0x0e, 0x18, 0xc4, 0x18, 0xdd, 0xbd, 0x32, 0x48, 0xfb, 
    0x3b, 0xea, 0xcc, 0x0d, 0xea, 0xe9, 0x18, 0x4b, 0xc3, 0xdb, 0xbf, 0xc7, 
    0x47, 0x27, 0x59, 0xed, 0x4c, 0x30, 0x0d, 0x25, 0xc3, 0xf4, 0x53, 0x56, 
    0xe0, 0xad, 0x4b, 0xf2, 0xcd, 0xb3, 0xc1, 0xf1, 0x53, 0xa5, 0x59, 0x2f, 
    0xca, 0xe2, 0x33, 0xfb, 0xfe, 0xff, 0x03, 0x02, 0x45, 0xd7, 0x05, 0x46, 
    0xaa, 0x7f, 0xf9, 0xd0, 0x0e, 0x49, 0x31, 0xf8, 0xff, 0x5a, 0x50, 0x34, 
    0xd4, 0xb1, 0xa8, 0xb9, 0x1a, 0x23, 0x3c, 0xb0, 0x06, 0xbe, 0xc9, 0x3f, 
    0xb5, 0xe2, 0xf7, 0xea, 0x48, 0x0f, 0xb6, 0x05, 0x20, 0xea, 0xca, 0xd6, 
    0xf7, 0xa6, 0xb0, 0x3a, 0x31, 0x5a, 0x51, 0x0b, 0x0a, 0x09, 0x40, 0x32, 
    0x48, 0xe0, 0xb1, 0x3e, 0xb6, 0x18, 0x11, 0xfe, 0x1d, 0xf0, 0xcf, 0xf1, 
    0x44, 0xad, 0x27, 0x1c, 0x59, 0x2f, 0xeb, 0x18, 0x33, 0xce, 0x55, 0x5a, 
    0xde, 0xd9, 0xc3, 0xe9, 0xc2, 0xec, 0xff, 0xff, 0x04, 0x00, 0x00, 0x00, 
    0x40, 0x00, 0x00, 0x00, 0xfd, 0x02, 0x00, 0x00, 0x22, 0x02, 0x00, 0x00, 
    0x36, 0x05, 0x00, 0x00, 0x22, 0x04, 0x00, 0x00, 0x18, 0x05, 0x00, 0x00, 
    0x59, 0x01, 0x00, 0x00, 0xfa, 0xff, 0xff, 0xff, 0x26, 0x02, 0x00, 0x00, 
    0x1b, 0x04, 0x00, 0x00, 0x36, 0x03, 0x00, 0x00, 0x75, 0x02, 0x00, 0x00, 
    0x5a, 0x05, 0x00, 0x00, 0x6c, 0x00, 0x00, 0x00, 0x6b, 0x00, 0x00, 0x00, 
    0x5d, 0x03, 0x00, 0x00, 0xfb, 0xfd, 0xff, 0xff, 0x0e, 0xed, 0xff, 0xff, 
    0x04, 0x00, 0x00, 0x00, 0x00, 0x0e, 0x00, 0x00, 0x03, 0xec, 0x45, 0xc4, 
    0x50, 0x1e, 0x01, 0x4f, 0x2e, 0xf9, 0xe8, 0x2c, 0xfd, 0xdb, 0xfd, 0x29, 
    0x2f, 0x29, 0xd1, 0x00, 0x04, 0xed, 0x15, 0x62, 0xed, 0x0c, 0xed, 0x10, 
    0x43, 0xec, 0xf9, 0x3c, 0x1c, 0x0c, 0xd7, 0x29, 0x1e, 0xe9, 0xc8, 0x53, 
    0x78, 0x30, 0x7c, 0x0a, 0x15, 0x05, 0x28, 0x09, 0x3d, 0x0e, 0x48, 0x1f, 
    0x18, 0xe6, 0xd2, 0x71, 0x1c, 0x0b, 0xf5, 0x1d, 0x2e, 0xe2, 0x5f, 0x03, 
    0x1b, 0x1d, 0xf4, 0xdf, 0x65, 0xbd, 0x13, 0xc3, 0x63, 0xf0, 0x79, 0x4e, 
    0x7f, 0xfd, 0xfe, 0x10, 0xfc, 0x11, 0xdc, 0xf5, 0x05, 0x3d, 0xe1, 0x31, 
    0x33, 0xca, 0x68, 0x5a, 0x70, 0xf9, 0x3e, 0x29, 0xb5, 0xd5, 0xfc, 0xc2, 
    0x02, 0x3b, 0xd0, 0x2e, 0x4d, 0x14, 0x06, 0x14, 0xf7, 0xcb, 0x41, 0xe3, 
    0xd7, 0x0e, 0x30, 0xf2, 0xe1, 0x18, 0xd3, 0xc5, 0x46, 0x68, 0x60, 0xdf, 
    0x17, 0x08, 0x43, 0xdf, 0xdd, 0x10, 0x04, 0x21, 0x4a, 0xec, 0x19, 0xda, 
    0x4a, 0xec, 0x3c, 0x3e, 0x59, 0xe9, 0xd2, 0xe5, 0x1a, 0x25, 0x19, 0x46, 
    0x12, 0x0c, 0x4f, 0x1b, 0xf0, 0x7a, 0x26, 0x5b, 0x42, 0xf0, 0x0c, 0x1b, 
    0xe1, 0x9d, 0x59, 0x5e, 0xb9, 0x7f, 0x56, 0x1f, 0xf7, 0xfc, 0xea, 0x28, 
    0x03, 0xd8, 0xfc, 0x08, 0xde, 0xcb, 0x46, 0x00, 0xb8, 0x4b, 0x46, 0x4a, 
    0x00, 0xf9, 0xd8, 0x5c, 0xb5, 0x2d, 0xba, 0x25, 0x0d, 0xc2, 0xf0, 0xfd, 
    0xde, 0xe9, 0x22, 0x14, 0xf7, 0x59, 0xf1, 0x15, 0xcf, 0x64, 0xe3, 0xb1, 
    0x23, 0x2c, 0xe6, 0x2d, 0xbc, 0x43, 0x11, 0xee, 0x1a, 0x46, 0xf7, 0x08, 
    0xd6, 0x0a, 0x2b, 0xe1, 0x2f, 0xce, 0xfc, 0x24, 0x0f, 0x01, 0xe2, 0x44, 
    0xf5, 0xf5, 0xc2, 0xf8, 0x12, 0xc0, 0xe3, 0x0b, 0x42, 0x38, 0xc2, 0x1d, 
    0x15, 0x1c, 0xd1, 0x29, 0xe3, 0x11, 0xc7, 0xce, 0x29, 0xde, 0x14, 0x1b, 
    0x23, 0xfb, 0xd0, 0xf1, 0x2a, 0xd6, 0xc3, 0x04, 0x50, 0xcf, 0xdb, 0x2d, 
    0xb2, 0xbf, 0x17, 0xa1, 0x07, 0x57, 0x07, 0x34, 0x4d, 0xe4, 0xfb, 0x05, 
    0x26, 0xf3, 0x09, 0x50, 0x4b, 0x2e, 0x23, 0x17, 0xf5, 0xfa, 0xb6, 0xd6, 
    0x4e, 0x81, 0xa2, 0xad, 0x68, 0x9f, 0xf1, 0x37, 0xe8, 0xda, 0x38, 0xcb, 
    0x54, 0xf1, 0xe5, 0xf8, 0xce, 0x1c, 0x33, 0x3d, 0x03, 0x3c, 0x0e, 0xc3, 
    0x0e, 0x25, 0xd1, 0x2d, 0x1f, 0xfc, 0xc0, 0x3b, 0x26, 0xeb, 0x14, 0xdf, 
    0xe6, 0x42, 0x3b, 0xbc, 0xd7, 0xf6, 0x2b, 0x22, 0xb6, 0x64, 0x1b, 0x08, 
    0x11, 0x06, 0xcd, 0xf4, 0x3b, 0x60, 0xf1, 0xda, 0x66, 0x04, 0xd3, 0xc6, 
    0x1c, 0x59, 0xf4, 0x04, 0xf7, 0xdd, 0xf2, 0xc8, 0x09, 0x54, 0x23, 0xd8, 
    0x65, 0x3b, 0x23, 0x2b, 0xb3, 0xd0, 0x46, 0xe2, 0xfe, 0x77, 0x03, 0x00, 
    0x01, 0xf1, 0x0a, 0x26, 0xda, 0x55, 0xbe, 0x2e, 0x2e, 0x2e, 0xce, 0x66, 
    0x55, 0x34, 0x3a, 0x17, 0x31, 0x7c, 0x0c, 0xe4, 0x2a, 0x1d, 0xaf, 0xce, 
    0xd7, 0xfb, 0x0d, 0x62, 0xc6, 0x6c, 0x34, 0x5b, 0xe5, 0xef, 0xff, 0x7f, 
    0xce, 0x0e, 0xc7, 0xfb, 0x9f, 0xb5, 0xf4, 0xef, 0xc5, 0x70, 0x07, 0x4d, 
    0xb3, 0x09, 0xd0, 0x65, 0xdb, 0x48, 0xd6, 0xdb, 0xbf, 0x09, 0xbe, 0x45, 
    0x33, 0x1c, 0x13, 0x31, 0x38, 0xfa, 0x13, 0x29, 0xf5, 0x3c, 0x1e, 0x19, 
    0x2f, 0xf8, 0xb6, 0xc7, 0x0d, 0xf9, 0x2e, 0x5e, 0x4b, 0x11, 0x08, 0x9a, 
    0x14, 0x30, 0x9b, 0x10, 0x35, 0x4e, 0x32, 0x1b, 0x3c, 0x47, 0xb4, 0xa3, 
    0x7d, 0x0a, 0x3e, 0x7d, 0x5c, 0xf6, 0x23, 0xe1, 0xd8, 0x31, 0xe6, 0xa6, 
    0x52, 0xd2, 0x0b, 0x86, 0x24, 0xcc, 0x06, 0x0f, 0x35, 0x43, 0x06, 0xc9, 
    0x1f, 0xef, 0xf5, 0x50, 0x3f, 0x33, 0x28, 0x22, 0xf0, 0x65, 0x24, 0x41, 
    0x0c, 0x4f, 0x29, 0x2d, 0x96, 0x81, 0x2c, 0xef, 0xe3, 0x27, 0x42, 0xe6, 
    0xe2, 0x79, 0x8b, 0xe9, 0x08, 0xe1, 0xe9, 0xe7, 0x18, 0x04, 0xa2, 0x18, 
    0x43, 0x0a, 0x2e, 0xca, 0x51, 0x33, 0x53, 0xfd, 0xfd, 0x2d, 0x0a, 0xc7, 
    0x4b, 0x1d, 0xc9, 0x48, 0x02, 0x37, 0x02, 0x27, 0x2e, 0x40, 0x1e, 0xf6, 
    0xf0, 0xf9, 0xeb, 0x4b, 0xe1, 0xf9, 0x31, 0xca, 0x39, 0xe3, 0x07, 0x2c, 
    0x29, 0xf8, 0xb8, 0x03, 0xd6, 0x9f, 0xe8, 0x17, 0x21, 0xcb, 0xd6, 0xd4, 
    0x06, 0x00, 0xf1, 0x15, 0x2f, 0x1c, 0xb4, 0xfc, 0xe7, 0x9a, 0x02, 0xf8, 
    0x31, 0x38, 0x10, 0xdc, 0x07, 0xda, 0x95, 0xf8, 0xee, 0xb8, 0x3e, 0xf7, 
    0x2d, 0x17, 0x22, 0x98, 0xd7, 0x1f, 0xd8, 0xb7, 0x29, 0xdc, 0x81, 0xcf, 
    0x47, 0x21, 0x21, 0x38, 0x3d, 0xf6, 0x0c, 0xec, 0xd1, 0x27, 0xfa, 0x0b, 
    0x3d, 0x14, 0xec, 0x18, 0x0a, 0xcc, 0x37, 0x12, 0x42, 0x23, 0x2a, 0x22, 
    0x55, 0x20, 0x51, 0xde, 0x06, 0xde, 0x2f, 0x2a, 0x1e, 0x2b, 0xbe, 0xb8, 
    0xfb, 0x13, 0x37, 0x19, 0xed, 0x0a, 0xd9, 0xf6, 0xdc, 0x03, 0x11, 0x29, 
    0xea, 0x09, 0x39, 0x13, 0xf1, 0xde, 0xcb, 0xd3, 0x19, 0xdb, 0x28, 0xdd, 
    0xaf, 0xcc, 0x40, 0x28, 0x88, 0x2a, 0xc4, 0xf8, 0xf6, 0xf8, 0x13, 0x02, 
    0x8f, 0xe7, 0xe2, 0xd0, 0xb1, 0xb0, 0xdd, 0xc8, 0x9d, 0x35, 0xc0, 0xc2, 
    0xb4, 0xb0, 0xa2, 0x41, 0x13, 0x11, 0x06, 0x98, 0x5d, 0xf5, 0xe6, 0x81, 
    0x4d, 0x36, 0xfb, 0x10, 0xe8, 0x0a, 0xfb, 0xf4, 0xd5, 0x40, 0xfd, 0xa7, 
    0x03, 0x0c, 0xbe, 0xaf, 0x14, 0x37, 0xf9, 0xec, 0x25, 0x37, 0xba, 0xc3, 
    0xad, 0xbc, 0x42, 0x25, 0xe8, 0xf3, 0xfb, 0xef, 0xc0, 0xfa, 0xa0, 0xf2, 
    0xc4, 0x04, 0xa0, 0x4f, 0xd7, 0xec, 0x44, 0x58, 0xef, 0x50, 0x04, 0x38, 
    0x01, 0xf7, 0xdb, 0xde, 0x02, 0x4c, 0xcc, 0x53, 0x39, 0x13, 0x16, 0xeb, 
    0x12, 0xe7, 0xfd, 0xeb, 0x0d, 0xdd, 0x0d, 0xc0, 0x2e, 0xcc, 0x18, 0x18, 
    0xbf, 0xf0, 0xf3, 0xee, 0x0f, 0xf1, 0xfe, 0x22, 0x1b, 0xe0, 0x07, 0x0e, 
    0xf5, 0xd8, 0x7f, 0x1a, 0xe6, 0x18, 0x08, 0xd3, 0x1b, 0x1d, 0x06, 0x00, 
    0xfa, 0x02, 0x0a, 0xd6, 0xfd, 0x0e, 0x13, 0xf2, 0xef, 0xf8, 0xe6, 0xee, 
    0x18, 0xf4, 0xf3, 0xff, 0x91, 0xe3, 0x0d, 0x1b, 0x37, 0xd4, 0xfd, 0xe5, 
    0x16, 0xec, 0xd3, 0x00, 0x18, 0xfb, 0x0d, 0x19, 0x05, 0x12, 0x15, 0x1c, 
    0x10, 0x0f, 0x34, 0x12, 0x38, 0xf6, 0xf5, 0xd5, 0x95, 0xbb, 0xdc, 0xc9, 
    0x32, 0xd8, 0x30, 0x16, 0x0d, 0xf7, 0xca, 0xd6, 0xed, 0x20, 0xf6, 0x17, 
    0x36, 0xe0, 0xe7, 0xff, 0x3a, 0x1d, 0x44, 0x0c, 0x01, 0xf2, 0x2f, 0x23, 
    0xd7, 0x11, 0x19, 0x18, 0xf2, 0x20, 0x26, 0xe3, 0x14, 0x18, 0xe7, 0x1c, 
    0xd9, 0x15, 0xd6, 0xf7, 0x96, 0x70, 0xcb, 0xa0, 0x30, 0x0b, 0xdf, 0x9f, 
    0x23, 0xfb, 0xef, 0x0c, 0x3f, 0x10, 0x81, 0xec, 0x64, 0xf7, 0x53, 0x36, 
    0xc4, 0xfc, 0xc3, 0x33, 0x44, 0x5c, 0x06, 0xab, 0x08, 0x56, 0x47, 0x55, 
    0xa1, 0xfd, 0xf9, 0x73, 0x14, 0x26, 0x16, 0x58, 0x46, 0x5c, 0xe2, 0xf1, 
    0xf2, 0x2d, 0x90, 0x2f, 0xcb, 0xe5, 0x8e, 0x08, 0xd7, 0x6a, 0xf9, 0xce, 
    0x41, 0x19, 0x58, 0x64, 0xf6, 0xc2, 0xfe, 0xfc, 0xaf, 0xcb, 0x0a, 0x33, 
    0xa5, 0x3b, 0x34, 0x06, 0xe8, 0x74, 0xf1, 0x03, 0xc0, 0x29, 0x90, 0x69, 
    0xe7, 0xac, 0xf5, 0xed, 0xe4, 0x47, 0x6b, 0x61, 0xec, 0xe0, 0xef, 0xeb, 
    0xdd, 0x34, 0x13, 0x19, 0xb8, 0xec, 0xa2, 0x3d, 0xf9, 0xba, 0xe9, 0x2d, 
    0xbe, 0xa4, 0xb3, 0x3a, 0xfd, 0x0f, 0x0a, 0x24, 0x69, 0xb0, 0x2e, 0xbd, 
    0x4a, 0xaf, 0xe3, 0x03, 0xee, 0xfb, 0xdb, 0xba, 0xf1, 0x09, 0x0c, 0xb9, 
    0x17, 0xed, 0xd6, 0xe2, 0x10, 0xf8, 0xd2, 0x63, 0x0f, 0xbd, 0x13, 0xe2, 
    0x11, 0x12, 0x47, 0x0d, 0x33, 0x9f, 0xe7, 0x0d, 0xd7, 0x02, 0x13, 0xb5, 
    0x7f, 0xc0, 0x8c, 0x21, 0xf1, 0x9c, 0xeb, 0xba, 0x52, 0x41, 0x37, 0x28, 
    0x3c, 0x1d, 0xcc, 0x32, 0x48, 0x2c, 0xef, 0x01, 0x00, 0x16, 0x04, 0x19, 
    0x67, 0x1f, 0xee, 0x0b, 0xe1, 0xeb, 0xa6, 0xe1, 0x24, 0xcb, 0x83, 0x13, 
    0x39, 0xf4, 0xa8, 0xf0, 0xeb, 0xe8, 0xd7, 0xff, 0x56, 0x0e, 0xd2, 0xfc, 
    0x15, 0x1e, 0x37, 0xe6, 0x1e, 0x02, 0x32, 0xf3, 0xee, 0xe6, 0xbf, 0xf5, 
    0x0c, 0xd3, 0x2e, 0x11, 0xf3, 0xd9, 0xdb, 0xe8, 0x42, 0xe3, 0xf3, 0xf2, 
    0xf5, 0x4f, 0xe0, 0x13, 0x68, 0x6d, 0x27, 0xf0, 0x50, 0xf6, 0x0c, 0xf5, 
    0x69, 0x14, 0xc8, 0xf9, 0x13, 0xc2, 0x41, 0x22, 0x6f, 0xea, 0x37, 0x41, 
    0xf0, 0x7b, 0x15, 0x28, 0xff, 0xca, 0x26, 0xb2, 0x97, 0xbf, 0x6b, 0xcb, 
    0xef, 0x7f, 0x34, 0x42, 0xc0, 0x5d, 0xdc, 0x2a, 0x40, 0xf8, 0x93, 0x54, 
    0xde, 0x14, 0xcc, 0x5c, 0x70, 0x7e, 0x5a, 0x5d, 0x30, 0x7c, 0xe4, 0xeb, 
    0x52, 0x54, 0xbc, 0x65, 0xe8, 0xd4, 0x01, 0x67, 0x01, 0xf7, 0x3e, 0x57, 
    0xd2, 0x4e, 0x94, 0x78, 0xf1, 0xe3, 0xfe, 0x21, 0xad, 0xb4, 0x43, 0x23, 
    0xbd, 0x0c, 0x17, 0xd4, 0xcd, 0x5c, 0x93, 0x44, 0xc4, 0xff, 0x06, 0x16, 
    0x13, 0xf2, 0x07, 0x3e, 0x31, 0x38, 0xb2, 0x41, 0x36, 0xe0, 0x06, 0x2c, 
    0x2f, 0xcf, 0x33, 0xb5, 0xeb, 0xc7, 0xfa, 0xc8, 0x02, 0xe8, 0x26, 0x12, 
    0x39, 0xd3, 0xcf, 0xb4, 0xfd, 0xe0, 0xdd, 0x13, 0x55, 0xfd, 0x4f, 0x20, 
    0x32, 0xb9, 0x2a, 0xf2, 0x30, 0x17, 0xa0, 0xe5, 0xb9, 0xce, 0xc2, 0x4d, 
    0x54, 0x9d, 0x23, 0x1b, 0x67, 0xf2, 0xbd, 0x3f, 0x67, 0xb3, 0x8e, 0xcb, 
    0xdc, 0xe4, 0xfb, 0x98, 0x1d, 0x3b, 0x01, 0xa9, 0x09, 0x20, 0xca, 0x0e, 
    0x5f, 0xfd, 0x07, 0xf3, 0x1a, 0xd2, 0x37, 0xc5, 0xf7, 0xe6, 0xd6, 0x07, 
    0x64, 0xca, 0x81, 0xb9, 0x65, 0xfa, 0x76, 0x21, 0x26, 0xbb, 0x36, 0xa7, 
    0xc8, 0xed, 0x06, 0xcf, 0x4a, 0x12, 0x01, 0x2f, 0x68, 0xea, 0x66, 0x14, 
    0x06, 0x1b, 0x13, 0xee, 0xed, 0x4b, 0x1f, 0x03, 0x0a, 0x30, 0xdc, 0x07, 
    0x2f, 0xe0, 0x3e, 0x0e, 0x3d, 0xde, 0x23, 0xdd, 0x3a, 0x73, 0xd2, 0xe4, 
    0x4c, 0x62, 0x23, 0x04, 0x31, 0x4a, 0x2a, 0x0a, 0x40, 0xe0, 0x3c, 0xb0, 
    0xcb, 0x93, 0xb2, 0xff, 0x10, 0x85, 0xe2, 0xdc, 0xc5, 0x7b, 0xca, 0x7f, 
    0xd7, 0x23, 0xc6, 0xb2, 0xe4, 0x1b, 0x71, 0x09, 0x53, 0x76, 0x49, 0x1a, 
    0xef, 0x1e, 0x2d, 0xd4, 0xde, 0xfd, 0xe1, 0x38, 0xf7, 0xfc, 0xde, 0x16, 
    0xf3, 0x0e, 0x04, 0xfe, 0x08, 0x2f, 0xdf, 0x09, 0x5a, 0x57, 0xd2, 0x0e, 
    0xff, 0xbd, 0x51, 0x20, 0xc5, 0x47, 0x1d, 0x5b, 0x02, 0xe0, 0xa0, 0x56, 
    0xb3, 0x34, 0xe9, 0x22, 0xfe, 0xeb, 0x02, 0xdf, 0xcd, 0x37, 0x56, 0x6c, 
    0xf3, 0x74, 0xdb, 0x71, 0xb0, 0xf9, 0xe1, 0x57, 0xe0, 0xfe, 0x18, 0x18, 
    0xf0, 0x3c, 0x28, 0xdd, 0x55, 0xcd, 0xe5, 0x11, 0x08, 0xd0, 0xe7, 0x3b, 
    0x03, 0xcc, 0xf9, 0x32, 0xfd, 0x06, 0x29, 0x0b, 0xc2, 0xce, 0xd6, 0xf5, 
    0xd8, 0xe1, 0x17, 0x28, 0xbb, 0x23, 0xbb, 0x27, 0x34, 0x2f, 0xd3, 0x81, 
    0x3d, 0xfa, 0xf8, 0x59, 0xf5, 0x50, 0xb5, 0xfc, 0xce, 0x57, 0x26, 0xf3, 
    0xdd, 0x28, 0xf6, 0xbe, 0x4d, 0x33, 0x15, 0x11, 0xee, 0xf0, 0xaf, 0xc9, 
    0xac, 0xdd, 0x5c, 0xe3, 0x34, 0xdf, 0x45, 0x12, 0xdc, 0x31, 0x1a, 0xf1, 
    0x13, 0x58, 0xa3, 0x2f, 0xce, 0xce, 0xea, 0x23, 0xc5, 0x2f, 0xfa, 0x46, 
    0x06, 0x25, 0xf5, 0x59, 0xa5, 0xe8, 0x1c, 0x37, 0x28, 0xa7, 0x41, 0x0b, 
    0xc9, 0x19, 0x56, 0x38, 0xe7, 0x38, 0xef, 0x5c, 0xda, 0x39, 0xda, 0x60, 
    0x26, 0x2a, 0xff, 0xff, 0x15, 0xff, 0x19, 0x19, 0x2c, 0xf0, 0xcb, 0x14, 
    0xca, 0x02, 0xc9, 0x12, 0xe0, 0x40, 0x27, 0x10, 0x06, 0x21, 0xaa, 0xdc, 
    0x3b, 0x04, 0x57, 0xde, 0xf4, 0x6e, 0xd3, 0xc8, 0x06, 0x31, 0x11, 0x3c, 
    0xe8, 0x2b, 0xe2, 0xda, 0x56, 0x68, 0x69, 0xf4, 0x34, 0x5c, 0x07, 0xc9, 
    0xcc, 0xcb, 0xd8, 0x37, 0xe0, 0xdf, 0xf1, 0x50, 0xd7, 0x30, 0xd3, 0xfd, 
    0xf9, 0x08, 0xee, 0x11, 0x06, 0x06, 0x4e, 0x4f, 0x20, 0x0c, 0x7f, 0x51, 
    0xf4, 0x29, 0x28, 0x34, 0x49, 0x6c, 0x23, 0x2c, 0xb4, 0xd2, 0xdc, 0xd0, 
    0xc2, 0x06, 0x40, 0xb0, 0xe6, 0x14, 0xd2, 0x97, 0x07, 0xe3, 0x2f, 0xe5, 
    0x42, 0x0b, 0xd4, 0x0e, 0x18, 0x32, 0x3e, 0x1f, 0x21, 0xf1, 0xdb, 0xdc, 
    0xda, 0x37, 0x2d, 0x4d, 0xc7, 0x44, 0x43, 0xe4, 0x0d, 0x31, 0x13, 0xf6, 
    0xc9, 0x38, 0x19, 0xb0, 0xb4, 0xbe, 0xd1, 0xc1, 0xbb, 0x58, 0xf0, 0xf1, 
    0x60, 0x02, 0x24, 0xe1, 0x65, 0x61, 0x5f, 0x28, 0x1e, 0xe7, 0xb9, 0x16, 
    0x27, 0x10, 0xac, 0xcb, 0xf8, 0x50, 0xd4, 0x22, 0x2f, 0x4a, 0x03, 0x48, 
    0x55, 0x48, 0x21, 0x05, 0xa1, 0xbe, 0x58, 0x0c, 0x0f, 0x3c, 0xfc, 0x0b, 
    0xf9, 0x27, 0xca, 0x68, 0xf5, 0x62, 0xc6, 0x6b, 0x25, 0x25, 0x30, 0xf7, 
    0xea, 0x1d, 0x1d, 0x24, 0xdc, 0x7f, 0x09, 0x5d, 0x31, 0x45, 0x13, 0x64, 
    0xf2, 0xde, 0x15, 0x5f, 0xe1, 0x2a, 0x4e, 0x4e, 0xdf, 0xea, 0xb5, 0xfe, 
    0x0a, 0x69, 0x10, 0xd7, 0x22, 0xf6, 0x18, 0x57, 0x22, 0x29, 0x4c, 0x3e, 
    0x1a, 0x61, 0x09, 0x64, 0x2f, 0xe5, 0xe6, 0xd7, 0xf9, 0xd3, 0x01, 0xec, 
    0x22, 0xf3, 0xf6, 0xfe, 0xeb, 0xe3, 0xcb, 0x49, 0xf1, 0xe2, 0xee, 0xfc, 
    0x2d, 0x45, 0xf8, 0xe3, 0x2d, 0x66, 0x10, 0xb3, 0x02, 0x05, 0x51, 0xda, 
    0x4a, 0x1b, 0xdf, 0x1e, 0x36, 0xf9, 0xd7, 0x32, 0x56, 0xfb, 0xe1, 0xbc, 
    0x7f, 0xcb, 0x50, 0x4b, 0x6b, 0xfe, 0x3e, 0x03, 0x60, 0x06, 0xd7, 0xd9, 
    0xfc, 0x0c, 0xed, 0x5c, 0x03, 0x3d, 0x0a, 0x42, 0xee, 0x4c, 0x4d, 0xfe, 
    0xea, 0xd5, 0x0a, 0xe7, 0x11, 0x05, 0x38, 0x5a, 0xfe, 0xe0, 0xed, 0xcb, 
    0xdb, 0x19, 0x11, 0x0a, 0xf9, 0x06, 0xe8, 0xc8, 0x05, 0xe8, 0x8e, 0x8f, 
    0x25, 0xbc, 0x31, 0xe5, 0x55, 0xf3, 0xfc, 0xa8, 0xd6, 0x36, 0xcf, 0xd5, 
    0x0b, 0xda, 0xb2, 0xb7, 0x5f, 0xaf, 0x21, 0x4f, 0x65, 0xd6, 0xf6, 0xa2, 
    0xcc, 0xfc, 0x39, 0xe1, 0x1a, 0x1e, 0xea, 0xc2, 0xf9, 0x3e, 0x3c, 0x20, 
    0x10, 0xbb, 0x47, 0x25, 0xb6, 0x11, 0x0f, 0x05, 0x45, 0x45, 0x2d, 0xa7, 
    0x5f, 0x46, 0xfe, 0x1d, 0x49, 0xed, 0xb3, 0x39, 0xbd, 0x9d, 0x2e, 0xfc, 
    0xca, 0xff, 0xc2, 0xe3, 0x81, 0xfd, 0x26, 0xd0, 0xd2, 0xca, 0xc2, 0x15, 
    0xeb, 0xe0, 0x5a, 0xea, 0xe8, 0x20, 0xf7, 0x4c, 0xe0, 0x20, 0x09, 0x23, 
    0x26, 0x49, 0xb5, 0x45, 0x9a, 0x2d, 0xa8, 0xba, 0x3e, 0x17, 0xe2, 0xa5, 
    0xfc, 0x10, 0xe5, 0x25, 0xe0, 0xfc, 0xdb, 0x09, 0xc9, 0xc5, 0xe5, 0x5c, 
    0xf6, 0x58, 0x5d, 0xf6, 0xfb, 0x13, 0xc3, 0x33, 0xb8, 0x63, 0x1f, 0x10, 
    0xd0, 0x9b, 0x38, 0x0d, 0xb3, 0x5f, 0xee, 0xe6, 0xbe, 0x2e, 0xc3, 0x24, 
    0xc0, 0x2c, 0xb3, 0x36, 0x44, 0x13, 0x28, 0xf8, 0x20, 0x3f, 0xfa, 0x24, 
    0x21, 0xe2, 0xcc, 0x28, 0xee, 0xd9, 0x18, 0xd5, 0x22, 0x6f, 0xc9, 0xbb, 
    0xfa, 0xee, 0x0f, 0xdb, 0xf2, 0xe9, 0x58, 0x61, 0x5a, 0x05, 0x12, 0xb6, 
    0x4a, 0x6f, 0xf3, 0x19, 0xf0, 0x60, 0xae, 0xf8, 0x17, 0xff, 0x63, 0x1f, 
    0x04, 0x1c, 0x29, 0x0a, 0x02, 0x4b, 0x17, 0x6a, 0x35, 0x6c, 0xff, 0x05, 
    0x5d, 0x0e, 0x12, 0x36, 0xdf, 0x5b, 0xc9, 0xd8, 0x00, 0xf4, 0x53, 0x2e, 
    0x05, 0x3c, 0x44, 0x17, 0x1b, 0x61, 0x21, 0x1e, 0xe2, 0x31, 0x25, 0x05, 
    0xf4, 0xa5, 0xd7, 0x5d, 0xbb, 0xf7, 0x1e, 0xe3, 0xc0, 0x03, 0xc6, 0x4f, 
    0xe6, 0x6a, 0xf0, 0x37, 0xe8, 0xa3, 0xe8, 0x7f, 0xdf, 0xac, 0x12, 0xb0, 
    0xe9, 0xba, 0xdc, 0xa7, 0xb9, 0xc5, 0xd3, 0xe4, 0xe7, 0x42, 0xcb, 0xb4, 
    0xe4, 0xde, 0x17, 0xba, 0x18, 0x37, 0x23, 0x44, 0xd9, 0xd0, 0x36, 0xe4, 
    0x1d, 0x41, 0x00, 0xf4, 0x0b, 0x16, 0xf8, 0xf9, 0x2b, 0x28, 0x36, 0x2e, 
    0x47, 0xea, 0x30, 0x14, 0xef, 0xdb, 0xcd, 0xe1, 0x2b, 0xde, 0x17, 0xcb, 
    0xff, 0xd6, 0x0e, 0x0c, 0x12, 0xd4, 0xc4, 0xda, 0xfe, 0x00, 0x1f, 0x25, 
    0x1a, 0x01, 0x37, 0x32, 0x12, 0x25, 0xf6, 0x14, 0xe6, 0x2d, 0x1b, 0x2d, 
    0x22, 0x00, 0x25, 0xd6, 0x01, 0xf6, 0x17, 0x43, 0xf9, 0xf8, 0xf5, 0xe1, 
    0xe6, 0xe8, 0x21, 0x17, 0xec, 0x2d, 0xfa, 0x1d, 0x2a, 0x1a, 0xf1, 0xf4, 
    0x38, 0x05, 0x45, 0x19, 0x43, 0x46, 0x0f, 0x16, 0x04, 0x81, 0xf0, 0x15, 
    0xbb, 0xc4, 0x14, 0xf4, 0x1f, 0xff, 0x0d, 0xf3, 0x42, 0x09, 0x57, 0xf9, 
    0x0d, 0x1f, 0x1e, 0x1f, 0xd0, 0xda, 0x29, 0x29, 0x12, 0xfb, 0x05, 0x29, 
    0xea, 0x12, 0xd1, 0x2f, 0xe8, 0xcd, 0xc9, 0xd1, 0x3b, 0x07, 0xe7, 0x03, 
    0xfd, 0xdb, 0xb9, 0xf4, 0xff, 0xcb, 0x14, 0xfd, 0x04, 0x15, 0x33, 0x23, 
    0xf6, 0x04, 0x31, 0xf2, 0x37, 0x07, 0xf8, 0xff, 0x01, 0x1a, 0x1c, 0x06, 
    0xe9, 0x23, 0xce, 0xe0, 0xf4, 0x17, 0xca, 0xf6, 0x0d, 0xf9, 0xda, 0x1d, 
    0x0d, 0xe6, 0x29, 0xb3, 0x0e, 0x46, 0x00, 0x20, 0xf8, 0xce, 0xe9, 0x03, 
    0x2a, 0xe8, 0x33, 0x34, 0xf7, 0xfc, 0xff, 0x03, 0xde, 0x4e, 0x0e, 0x03, 
    0x3b, 0x15, 0x18, 0xff, 0x4e, 0x04, 0xfe, 0xfe, 0x4c, 0xf5, 0x4e, 0x2b, 
    0xf8, 0x6f, 0xe9, 0xbb, 0x27, 0xc9, 0xc6, 0xc5, 0x81, 0xc3, 0xf0, 0xda, 
    0xe8, 0xb6, 0x10, 0xa0, 0x0a, 0xd0, 0xe4, 0x1c, 0xec, 0xed, 0x09, 0x2e, 
    0xfc, 0xd7, 0x19, 0x2d, 0xfc, 0x1e, 0xde, 0xce, 0x25, 0x20, 0x24, 0x2e, 
    0x2e, 0xdd, 0xea, 0x4b, 0x2e, 0x27, 0x00, 0x20, 0xf0, 0x19, 0x03, 0x3a, 
    0xfb, 0x81, 0xf4, 0xf5, 0x01, 0x0b, 0x07, 0x55, 0xc6, 0x71, 0xe3, 0x31, 
    0x0b, 0x2c, 0x11, 0x37, 0xea, 0x3f, 0x22, 0xdd, 0x39, 0xf3, 0x09, 0x13, 
    0x33, 0xcf, 0x43, 0x3c, 0x4a, 0xfa, 0xe4, 0xd4, 0xc7, 0xf9, 0x08, 0x2e, 
    0xec, 0x4a, 0x08, 0xf7, 0x45, 0xfc, 0x47, 0x37, 0x41, 0x3d, 0xe4, 0x3b, 
    0xe8, 0xc3, 0x1c, 0x2f, 0xe6, 0x02, 0x03, 0x28, 0xd0, 0x13, 0xd6, 0xfa, 
    0xbc, 0x15, 0xce, 0xe8, 0xf5, 0xc4, 0x38, 0x37, 0xd4, 0x00, 0x48, 0x04, 
    0xd6, 0x07, 0xeb, 0xfd, 0xbc, 0x33, 0x0f, 0x38, 0xc9, 0xee, 0xcb, 0xe1, 
    0xf3, 0x18, 0x0b, 0xe2, 0xe9, 0x17, 0xf5, 0xdb, 0xf0, 0x39, 0x35, 0x15, 
    0xfe, 0x02, 0x11, 0xdf, 0x07, 0xdd, 0xec, 0xf8, 0x1a, 0xfd, 0xd8, 0xd4, 
    0xf2, 0xf3, 0xe9, 0xf9, 0x1b, 0xec, 0xea, 0xf1, 0x23, 0x02, 0xfb, 0x02, 
    0x19, 0xf3, 0xdc, 0xd6, 0xce, 0xf7, 0x3a, 0x0c, 0x16, 0x14, 0xd7, 0xed, 
    0xbb, 0xe5, 0x00, 0x0e, 0x40, 0xd6, 0xbf, 0x05, 0x14, 0xed, 0x26, 0x01, 
    0x30, 0xfd, 0xe7, 0xe0, 0x15, 0xe4, 0xe2, 0x02, 0xd6, 0xf2, 0xb2, 0x13, 
    0x00, 0xd7, 0x02, 0xf6, 0x59, 0x9b, 0xdf, 0xe7, 0xfc, 0xe9, 0xcd, 0xd0, 
    0xe4, 0xe8, 0x08, 0x1c, 0x0a, 0xcc, 0x02, 0xfc, 0x39, 0x1c, 0xfe, 0x0c, 
    0x1f, 0xd9, 0x05, 0x01, 0x81, 0x02, 0x0d, 0x0e, 0x40, 0xe5, 0xff, 0xe4, 
    0xfc, 0xff, 0x0c, 0xef, 0x1a, 0xea, 0x1f, 0xfc, 0x1d, 0x13, 0x08, 0xec, 
    0xee, 0x0e, 0x1e, 0x1e, 0x0a, 0xc8, 0xe1, 0xdd, 0x10, 0xe6, 0x26, 0x3d, 
    0xf2, 0x14, 0xf3, 0xec, 0xc5, 0xfd, 0x81, 0xf9, 0xf2, 0x0d, 0x10, 0x07, 
    0xec, 0x14, 0xed, 0x28, 0x24, 0x13, 0xe0, 0xf5, 0x01, 0x03, 0xda, 0x23, 
    0x2c, 0x1b, 0xd1, 0xdf, 0x27, 0x15, 0xd1, 0x1e, 0xdb, 0xc9, 0xee, 0x08, 
    0xfd, 0x0b, 0x2f, 0xf8, 0xd7, 0x28, 0x1b, 0xf9, 0x28, 0x22, 0x0b, 0xfe, 
    0x3b, 0x13, 0x49, 0x16, 0x36, 0xf1, 0xfe, 0x22, 0x15, 0x1a, 0xf1, 0x2c, 
    0x1f, 0x0f, 0x1b, 0x20, 0xfd, 0xe4, 0xf7, 0x09, 0x12, 0x20, 0x2f, 0x0c, 
    0x00, 0xce, 0xf9, 0xf0, 0xd6, 0x28, 0xfb, 0x1e, 0xd8, 0x3b, 0xda, 0x17, 
    0xba, 0x2c, 0xde, 0x2e, 0xf9, 0xd7, 0xdd, 0x12, 0x12, 0xde, 0xee, 0xf8, 
    0x27, 0xd8, 0xdf, 0xde, 0xf5, 0xe0, 0x10, 0xf1, 0x05, 0xbc, 0x15, 0x1c, 
    0xbd, 0xc8, 0xc9, 0xf1, 0x9a, 0xb1, 0x11, 0xd7, 0xb5, 0xd8, 0xee, 0x31, 
    0xfe, 0x7f, 0xfe, 0xfd, 0x2f, 0xd6, 0x22, 0x1d, 0x18, 0x0b, 0x25, 0x66, 
    0x76, 0x44, 0x3b, 0xe1, 0xe9, 0xcf, 0xfc, 0xcc, 0x1f, 0x01, 0x30, 0xce, 
    0x02, 0x97, 0xea, 0xc6, 0xc8, 0x96, 0xc9, 0xa7, 0x02, 0x02, 0x5e, 0x09, 
    0x0c, 0x2c, 0x57, 0x6c, 0x27, 0xf6, 0xc0, 0x45, 0xfc, 0x0c, 0x10, 0x6b, 
    0x19, 0x6f, 0x19, 0x1b, 0x3e, 0xbd, 0xeb, 0xb4, 0xe0, 0x0c, 0x74, 0x2b, 
    0x4b, 0xc3, 0x01, 0x98, 0xc0, 0x61, 0x0d, 0xfc, 0x48, 0xf4, 0xe0, 0xfb, 
    0x22, 0x27, 0xfc, 0x25, 0x42, 0x19, 0x51, 0xf7, 0x1b, 0xbf, 0xee, 0x35, 
    0x4d, 0x01, 0x39, 0xcc, 0xe9, 0xea, 0xc0, 0xd8, 0xbf, 0xce, 0x19, 0x1d, 
    0xf0, 0x20, 0x1b, 0xe7, 0x60, 0xe3, 0x1c, 0xb3, 0x58, 0x2b, 0x70, 0x5b, 
    0x29, 0xd6, 0xed, 0x3e, 0x11, 0x5f, 0xe4, 0x02, 0x5e, 0xf7, 0xfe, 0xfd, 
    0x10, 0xf0, 0x04, 0xf9, 0xff, 0x32, 0xe2, 0x1d, 0xc8, 0xdd, 0x30, 0x43, 
    0xa1, 0xe0, 0x42, 0x34, 0xeb, 0x1d, 0xcb, 0x5f, 0x4a, 0x15, 0x9c, 0x0e, 
    0x01, 0xb4, 0x65, 0x4d, 0xcd, 0xf3, 0x34, 0x57, 0xce, 0x14, 0xbf, 0x0a, 
    0xf1, 0x0e, 0xba, 0x65, 0xca, 0x01, 0xff, 0x7f, 0x0c, 0xf0, 0x0d, 0x20, 
    0xdf, 0x0e, 0xcf, 0xd3, 0xbb, 0xe8, 0x1c, 0xec, 0xb9, 0xc8, 0xc0, 0xa2, 
    0x04, 0xed, 0x02, 0xfb, 0xc1, 0xed, 0xd2, 0xcd, 0xc6, 0xbc, 0xbc, 0x2d, 
    0xf8, 0xd8, 0x31, 0x3a, 0x04, 0xcb, 0x21, 0xe7, 0x1a, 0x26, 0xeb, 0xb6, 
    0xfb, 0xda, 0xd6, 0x3a, 0xa6, 0x26, 0xba, 0xc6, 0x5e, 0xef, 0x31, 0xbb, 
    0x12, 0xf9, 0x1c, 0xdd, 0xea, 0x01, 0xad, 0x0d, 0x00, 0x53, 0xc0, 0xef, 
    0xf3, 0xe5, 0x04, 0xdd, 0x44, 0x61, 0x66, 0x3e, 0x2d, 0x5f, 0x21, 0xbf, 
    0xd3, 0xff, 0x16, 0x3c, 0xc4, 0xf4, 0x08, 0x2a, 0x0d, 0x0f, 0xbb, 0x13, 
    0xdd, 0xe5, 0xc5, 0x4f, 0x12, 0x37, 0x23, 0x2c, 0x33, 0x1b, 0x49, 0x50, 
    0x2f, 0x57, 0xdc, 0x17, 0xe5, 0xeb, 0x29, 0x5a, 0x21, 0xd8, 0xd3, 0x27, 
    0xf4, 0x5f, 0x33, 0x28, 0xe3, 0xe3, 0xf9, 0xdc, 0xc4, 0x4d, 0xbc, 0x14, 
    0xf9, 0x50, 0xd6, 0x02, 0x0b, 0x34, 0xd5, 0x0d, 0xfe, 0x33, 0x7f, 0x0a, 
    0x5b, 0x09, 0x29, 0xdc, 0xda, 0x23, 0x3a, 0xc2, 0xf6, 0xd1, 0x02, 0x3e, 
    0x22, 0x3b, 0xe3, 0xce, 0xf8, 0x31, 0x05, 0xe3, 0x33, 0xd8, 0x1b, 0x05, 
    0x28, 0x04, 0x1b, 0x0d, 0x31, 0xf4, 0xe0, 0xd9, 0xc7, 0xf0, 0xf3, 0x2c, 
    0x29, 0x14, 0x23, 0x2c, 0x17, 0xfb, 0xee, 0x0e, 0x18, 0x00, 0xde, 0xd8, 
    0x03, 0xe7, 0x0f, 0x2c, 0x30, 0x1f, 0x11, 0xe5, 0x3b, 0xa5, 0xd2, 0xca, 
    0x2d, 0xf0, 0x42, 0xf9, 0x20, 0xcf, 0x15, 0xfb, 0xe0, 0x21, 0xfd, 0x1c, 
    0x21, 0x1c, 0x0d, 0x01, 0x47, 0x0f, 0x29, 0x36, 0x19, 0x24, 0x18, 0xfb, 
    0xfe, 0x37, 0xd3, 0xc5, 0xd8, 0xa6, 0x9f, 0xbe, 0x01, 0xee, 0x44, 0xda, 
    0xff, 0xac, 0x2e, 0x96, 0x7f, 0xe8, 0x19, 0x0c, 0xe5, 0x0b, 0x39, 0x32, 
    0x07, 0x02, 0xe3, 0xf1, 0xfa, 0xd6, 0x57, 0x03, 0x2b, 0xda, 0xd7, 0x18, 
    0x04, 0xec, 0x1a, 0x10, 0xec, 0x22, 0xf1, 0x06, 0x2f, 0xf8, 0xf4, 0xf9, 
    0x93, 0x6f, 0x2e, 0xd6, 0x68, 0x33, 0xc1, 0x94, 0x6a, 0xfd, 0x0b, 0x34, 
    0x00, 0xf1, 0x94, 0x29, 0xc6, 0xfc, 0x0e, 0xff, 0x4b, 0x9e, 0xf0, 0x89, 
    0xcf, 0x24, 0xf4, 0xa9, 0x60, 0x36, 0xcc, 0x3c, 0xed, 0xfd, 0x4b, 0x08, 
    0xff, 0x1b, 0x37, 0x58, 0xd7, 0x21, 0xc0, 0x5f, 0x46, 0x19, 0x9a, 0xd7, 
    0xed, 0x17, 0xb5, 0xa5, 0x81, 0x50, 0xd7, 0xcc, 0xd7, 0x70, 0xf9, 0x1c, 
    0x3b, 0x59, 0xf6, 0xac, 0x21, 0xdc, 0xe8, 0x27, 0xe7, 0x69, 0x1f, 0x3a, 
    0xc7, 0x52, 0xa0, 0x19, 0xba, 0x08, 0xe0, 0xf3, 0xe7, 0xf0, 0xc5, 0xdb, 
    0xb4, 0x06, 0xf0, 0x1f, 0xdc, 0x61, 0xe8, 0xda, 0x31, 0xb6, 0x30, 0xe0, 
    0x17, 0xef, 0x23, 0x2e, 0xff, 0xff, 0xf8, 0x31, 0xd0, 0xce, 0xb7, 0xe8, 
    0xeb, 0x22, 0xe2, 0x04, 0x36, 0x4f, 0xd3, 0x10, 0xe3, 0x2d, 0xc0, 0x25, 
    0x4d, 0x0b, 0x64, 0xee, 0xec, 0x44, 0x0b, 0xfd, 0xb9, 0x01, 0x2c, 0x3c, 
    0x17, 0x2e, 0x14, 0x81, 0x4d, 0x0f, 0x2f, 0x32, 0xf6, 0x32, 0xb1, 0x24, 
    0xf5, 0xf5, 0x18, 0x18, 0x06, 0xe8, 0x54, 0xf3, 0x25, 0x47, 0x2e, 0x3e, 
    0x05, 0x55, 0xc6, 0xdf, 0xa0, 0x1f, 0xff, 0x1f, 0x32, 0x17, 0xfa, 0x39, 
    0xeb, 0x38, 0xcb, 0x32, 0x08, 0x2f, 0xd1, 0x56, 0xdd, 0xed, 0x37, 0xd9, 
    0xc3, 0x2d, 0x2e, 0xee, 0xc5, 0x0f, 0xee, 0x07, 0xbd, 0x4a, 0x32, 0x2b, 
    0xb9, 0xb0, 0x1b, 0x0c, 0xf9, 0x34, 0x18, 0xe8, 0xd2, 0xfa, 0xd5, 0x2b, 
    0x05, 0xde, 0x07, 0xfd, 0x07, 0x2c, 0xfc, 0xd2, 0xd7, 0xcf, 0x39, 0xfc, 
    0x0d, 0x28, 0xc6, 0xd7, 0xe7, 0x09, 0xe5, 0x11, 0x32, 0xe2, 0x59, 0xe8, 
    0x37, 0xaa, 0x39, 0x7f, 0x63, 0xc8, 0xaf, 0xa7, 0xd6, 0xc3, 0x4b, 0x2c, 
    0xda, 0xfb, 0xd0, 0xe6, 0x29, 0x46, 0xc5, 0x35, 0x33, 0xe1, 0xfd, 0xfb, 
    0xf3, 0x38, 0x66, 0xbb, 0x51, 0x1f, 0xd2, 0x9c, 0x32, 0x00, 0x8f, 0x12, 
    0x01, 0xd9, 0x49, 0x09, 0xe5, 0x2e, 0x3f, 0xb8, 0x73, 0x0d, 0x2c, 0x11, 
    0x0f, 0xf3, 0x22, 0xf1, 0x4d, 0xbb, 0x3b, 0x0e, 0x37, 0xd6, 0x5a, 0x15, 
    0x1b, 0x7a, 0xeb, 0xe2, 0x33, 0xc7, 0xd7, 0x1e, 0x3d, 0xc6, 0x18, 0x54, 
    0x3a, 0x26, 0xe5, 0x1b, 0x1b, 0xe1, 0xe2, 0xf6, 0x39, 0xf4, 0xe0, 0x0b, 
    0x3c, 0x2a, 0x76, 0x00, 0xf3, 0x36, 0x3d, 0x13, 0xcc, 0xf9, 0x17, 0x54, 
    0x0b, 0xc0, 0x55, 0x1d, 0xb3, 0xb7, 0xab, 0xf8, 0x25, 0x19, 0x0a, 0x07, 
    0x44, 0xfa, 0x0e, 0x2e, 0x04, 0xc7, 0x03, 0x47, 0x63, 0xe3, 0xf2, 0xf3, 
    0xbb, 0xf3, 0x21, 0xdb, 0x99, 0xe7, 0x1f, 0x5b, 0x27, 0xfe, 0x39, 0x94, 
    0x34, 0x71, 0x2a, 0x3e, 0x16, 0xff, 0xd5, 0x2d, 0x35, 0x52, 0xd7, 0xd0, 
    0x43, 0x15, 0x84, 0xc6, 0xf7, 0xe0, 0x4b, 0x03, 0x5a, 0xea, 0x44, 0xe2, 
    0x35, 0xf3, 0xeb, 0x20, 0x45, 0xd7, 0x28, 0x3c, 0xfe, 0x1f, 0xcd, 0xd0, 
    0xda, 0xd4, 0x00, 0x0e, 0x3d, 0xb1, 0x54, 0xfa, 0x3f, 0xda, 0xec, 0x32, 
    0x27, 0x06, 0x9e, 0xb6, 0xf1, 0x1b, 0xf0, 0x5a, 0x42, 0x3c, 0xd6, 0xec, 
    0x2e, 0xba, 0x81, 0xda, 0x4e, 0xf3, 0x1a, 0x16, 0xff, 0x02, 0x1b, 0xbc, 
    0xd9, 0xe8, 0x12, 0x18, 0x15, 0xe4, 0xe2, 0x32, 0x0a, 0x31, 0xff, 0x12, 
    0x26, 0xe1, 0xee, 0xdf, 0x1a, 0xfb, 0xff, 0xff, 0x04, 0x00, 0x00, 0x00, 
    0x80, 0x00, 0x00, 0x00, 0x48, 0x07, 0x00, 0x00, 0x7a, 0x04, 0x00, 0x00, 
    0x73, 0x0a, 0x00, 0x00, 0x12, 0x06, 0x00, 0x00, 0x29, 0x04, 0x00, 0x00, 
    0x48, 0x06, 0x00, 0x00, 0xff, 0xff, 0xff, 0xff, 0xe8, 0xff, 0xff, 0xff, 
    0xd9, 0xff, 0xff, 0xff, 0xa2, 0x01, 0x00, 0x00, 0x7f, 0x06, 0x00, 0x00, 
    0x62, 0x05, 0x00, 0x00, 0x3f, 0x04, 0x00, 0x00, 0x19, 0x05, 0x00, 0x00, 
    0x74, 0x06, 0x00, 0x00, 0x27, 0x05, 0x00, 0x00, 0xbc, 0x12, 0x00, 0x00, 
    0x41, 0x03, 0x00, 0x00, 0x2c, 0x05, 0x00, 0x00, 0x69, 0x03, 0x00, 0x00, 
    0x99, 0x03, 0x00, 0x00, 0xbd, 0x0a, 0x00, 0x00, 0x9f, 0x00, 0x00, 0x00, 
    0x0f, 0x04, 0x00, 0x00, 0xbb, 0x0b, 0x00, 0x00, 0x12, 0x05, 0x00, 0x00, 
    0xac, 0x08, 0x00, 0x00, 0x13, 0x05, 0x00, 0x00, 0x27, 0x05, 0x00, 0x00, 
    0x20, 0x04, 0x00, 0x00, 0xfb, 0x08, 0x00, 0x00, 0x99, 0x07, 0x00, 0x00, 
    0xa6, 0xfb, 0xff, 0xff, 0x04, 0x00, 0x00, 0x00, 0xe0, 0x00, 0x00, 0x00, 
    0xf6, 0x24, 0x17, 0x37, 0xdb, 0x2d, 0x04, 0xd2, 0xe7, 0xf1, 0x11, 0xde, 
    0x0f, 0xed, 0x2b, 0x16, 0xec, 0x2e, 0xfe, 0xe6, 0x15, 0x1b, 0x8f, 0x3b, 
    0xe3, 0x14, 0xcc, 0x17, 0x21, 0x1d, 0xea, 0xd2, 0xdb, 0x39, 0x12, 0x0e, 
    0xdf, 0x15, 0xf6, 0xf7, 0x33, 0x02, 0x2b, 0xf3, 0x1c, 0x23, 0xe9, 0x21, 
    0xd3, 0x2c, 0x36, 0xd0, 0xe6, 0x13, 0xb8, 0xeb, 0xd7, 0x05, 0xd0, 0x2b, 
    0x20, 0x0a, 0xe2, 0x07, 0xc6, 0x2a, 0xe8, 0x16, 0x38, 0xd6, 0x39, 0xcd, 
    0xed, 0xef, 0xf4, 0xe2, 0x35, 0x1f, 0x1f, 0xf1, 0xe9, 0x26, 0x21, 0x08, 
    0xd3, 0x34, 0x84, 0x03, 0xeb, 0x3d, 0x23, 0xf7, 0x28, 0x22, 0xd0, 0x19, 
    0xf5, 0x24, 0x00, 0x0f, 0xf4, 0xe6, 0x36, 0x10, 0x37, 0xc8, 0x24, 0xce, 
    0x29, 0x20, 0xf7, 0x10, 0x0b, 0xf7, 0x05, 0xe4, 0xee, 0x20, 0x87, 0x07, 
    0xfa, 0xf2, 0x17, 0xca, 0x12, 0x3a, 0xe8, 0xd6, 0x05, 0x23, 0xd7, 0x3e, 
    0x2d, 0xdf, 0x04, 0xd0, 0xf7, 0xd6, 0x00, 0xdc, 0x17, 0x0c, 0x34, 0x2e, 
    0x24, 0x02, 0x2e, 0x27, 0xec, 0xdd, 0x8d, 0xe0, 0x25, 0x19, 0x0b, 0xe2, 
    0x27, 0x1c, 0xd9, 0xf5, 0xe4, 0x28, 0xe9, 0x0c, 0x24, 0xc3, 0xe8, 0xc8, 
    0x03, 0xf0, 0x18, 0xef, 0x0b, 0xf7, 0xf1, 0x19, 0x14, 0x32, 0x1f, 0xf4, 
    0xca, 0xce, 0x81, 0xcb, 0x1a, 0x26, 0x22, 0xd2, 0x2d, 0xf1, 0xf4, 0x12, 
    0xd5, 0x09, 0x09, 0x31, 0xc8, 0xfa, 0xe2, 0xa7, 0x17, 0xdf, 0x38, 0x1c, 
    0x03, 0xce, 0x30, 0x1f, 0x10, 0x2f, 0x1a, 0x37, 0xcd, 0xc8, 0xa5, 0x0a, 
    0xec, 0x2d, 0x34, 0x0e, 0x1d, 0x2d, 0xfd, 0xd1, 0x92, 0xfc, 0xff, 0xff, 
    0x04, 0x00, 0x00, 0x00, 0x04, 0x00, 0x00, 0x00, 0x7c, 0xff, 0xff, 0xff, 
    0x34, 0xe1, 0xff, 0xff, 0xa6, 0xfc, 0xff, 0xff, 0x04, 0x00, 0x00, 0x00, 
    0x04, 0x00, 0x00, 0x00, 0x20, 0x00, 0x00, 0x00, 0xb6, 0xfc, 0xff, 0xff, 
    0x04, 0x00, 0x00, 0x00, 0x04, 0x00, 0x00, 0x00, 0x04, 0x00, 0x00, 0x00, 
    0xc6, 0xfc, 0xff, 0xff, 0x04, 0x00, 0x00, 0x00, 0x04, 0x00, 0x00, 0x00, 
    0x10, 0x00, 0x00, 0x00, 0xd6, 0xfc, 0xff, 0xff, 0x04, 0x00, 0x00, 0x00, 
    0x04, 0x00, 0x00, 0x00, 0x02, 0x00, 0x00, 0x00, 0xe6, 0xfc, 0xff, 0xff, 
    0x04, 0x00, 0x00, 0x00, 0x04, 0x00, 0x00, 0x00, 0x01, 0x00, 0x00, 0x00, 
    0xf6, 0xfc, 0xff, 0xff, 0x04, 0x00, 0x00, 0x00, 0x04, 0x00, 0x00, 0x00, 
    0x00, 0x00, 0x00, 0x00, 0x98, 0xe1, 0xff, 0xff, 0x9c, 0xe1, 0xff, 0xff, 
    0x0f, 0x00, 0x00, 0x00, 0x4d, 0x4c, 0x49, 0x52, 0x20, 0x43, 0x6f, 0x6e, 
    0x76, 0x65, 0x72, 0x74, 0x65, 0x64, 0x2e, 0x00, 0x01, 0x00, 0x00, 0x00, 
    0x14, 0x00, 0x00, 0x00, 0x00, 0x00, 0x0e, 0x00, 0x18, 0x00, 0x14, 0x00, 
    0x10, 0x00, 0x0c, 0x00, 0x08, 0x00, 0x04, 0x00, 0x0e, 0x00, 0x00, 0x00, 
    0x14, 0x00, 0x00, 0x00, 0x1c, 0x00, 0x00, 0x00, 0x2c, 0x04, 0x00, 0x00, 
    0x30, 0x04, 0x00, 0x00, 0x34, 0x04, 0x00, 0x00, 0x04, 0x00, 0x00, 0x00, 
    0x6d, 0x61, 0x69, 0x6e, 0x00, 0x00, 0x00, 0x00, 0x10, 0x00, 0x00, 0x00, 
    0xf4, 0x03, 0x00, 0x00, 0x98, 0x03, 0x00, 0x00, 0x44, 0x03, 0x00, 0x00, 
    0x08, 0x03, 0x00, 0x00, 0xb8, 0x02, 0x00, 0x00, 0x70, 0x02, 0x00, 0x00, 
    0x28, 0x02, 0x00, 0x00, 0xf4, 0x01, 0x00, 0x00, 0xb4, 0x01, 0x00, 0x00, 
    0x74, 0x01, 0x00, 0x00, 0x2c, 0x01, 0x00, 0x00, 0xf8, 0x00, 0x00, 0x00, 
    0xb8, 0x00, 0x00, 0x00, 0x78, 0x00, 0x00, 0x00, 0x34, 0x00, 0x00, 0x00, 
    0x10, 0x00, 0x00, 0x00, 0x00, 0x00, 0x0a, 0x00, 0x10, 0x00, 0x0c, 0x00, 
    0x08, 0x00, 0x04, 0x00, 0x0a, 0x00, 0x00, 0x00, 0x0c, 0x00, 0x00, 0x00, 
    0x10, 0x00, 0x00, 0x00, 0x06, 0x00, 0x00, 0x00, 0x01, 0x00, 0x00, 0x00, 
    0x21, 0x00, 0x00, 0x00, 0x01, 0x00, 0x00, 0x00, 0x20, 0x00, 0x00, 0x00, 
    0xde, 0xfc, 0xff, 0xff, 0x14, 0x00, 0x00, 0x00, 0x00, 0x00, 0x00, 0x31, 
    0x18, 0x00, 0x00, 0x00, 0x1c, 0x00, 0x00, 0x00, 0x05, 0x00, 0x00, 0x00, 
    0x9a, 0xfc, 0xff, 0xff, 0x01, 0x00, 0x00, 0x00, 0x01, 0x00, 0x00, 0x00, 
    0x01, 0x00, 0x00, 0x00, 0x20, 0x00, 0x00, 0x00, 0x04, 0x00, 0x00, 0x00, 
    0x1f, 0x00, 0x00, 0x00, 0x09, 0x00, 0x00, 0x00, 0x1c, 0x00, 0x00, 0x00, 
    0x08, 0x00, 0x00, 0x00, 0x1e, 0xfd, 0xff, 0xff, 0x14, 0x00, 0x00, 0x00, 
    0x00, 0x00, 0x00, 0x3b, 0x14, 0x00, 0x00, 0x00, 0x18, 0x00, 0x00, 0x00, 
    0x04, 0x00, 0x00, 0x00, 0x26, 0xfe, 0xff, 0xff, 0x04, 0x00, 0x00, 0x00, 
    0x01, 0x00, 0x00, 0x00, 0x1f, 0x00, 0x00, 0x00, 0x04, 0x00, 0x00, 0x00, 
    0x1e, 0x00, 0x00, 0x00, 0x05, 0x00, 0x00, 0x00, 0x05, 0x00, 0x00, 0x00, 
    0x07, 0x00, 0x00, 0x00, 0x5a, 0xfd, 0xff, 0xff, 0x14, 0x00, 0x00, 0x00, 
    0x00, 0x00, 0x00, 0x20, 0x14, 0x00, 0x00, 0x00, 0x18, 0x00, 0x00, 0x00, 
    0x03, 0x00, 0x00, 0x00, 0x1e, 0xfe, 0xff, 0xff, 0x01, 0x00, 0x00, 0x00, 
    0x01, 0x00, 0x00, 0x00, 0x1e, 0x00, 0x00, 0x00, 0x04, 0x00, 0x00, 0x00, 
    0x1d, 0x00, 0x00, 0x00, 0x01, 0x00, 0x00, 0x00, 0x02, 0x00, 0x00, 0x00, 
    0x02, 0x00, 0x00, 0x00, 0x96, 0xfd, 0xff, 0xff, 0x14, 0x00, 0x00, 0x00, 
    0x00, 0x00, 0x00, 0x37, 0x14, 0x00, 0x00, 0x00, 0x18, 0x00, 0x00, 0x00, 
    0x02, 0x00, 0x00, 0x00, 0x0e, 0xfe, 0xff, 0xff, 0x00, 0x00, 0x00, 0x02, 
    0x01, 0x00, 0x00, 0x00, 0x1d, 0x00, 0x00, 0x00, 0x01, 0x00, 0x00, 0x00, 
    0x1c, 0x00, 0x00, 0x00, 0xc6, 0xfd, 0xff, 0xff, 0x14, 0x00, 0x00, 0x00, 
    0x00, 0x00, 0x00, 0x31, 0x1c, 0x00, 0x00, 0x00, 0x20, 0x00, 0x00, 0x00, 
    0x05, 0x00, 0x00, 0x00, 0xb8, 0xfd, 0xff, 0xff, 0x00, 0x00, 0x00, 0x01, 
    0x02, 0x00, 0x00, 0x00, 0x02, 0x00, 0x00, 0x00, 0x01, 0x00, 0x00, 0x00, 
    0x1c, 0x00, 0x00, 0x00, 0x04, 0x00, 0x00, 0x00, 0x1b, 0x00, 0x00, 0x00, 
    0x0b, 0x00, 0x00, 0x00, 0x18, 0x00, 0x00, 0x00, 0x0a, 0x00, 0x00, 0x00, 
    0x0a, 0xfe, 0xff, 0xff, 0x14, 0x00, 0x00, 0x00, 0x00, 0x00, 0x00, 0x3b, 
    0x14, 0x00, 0x00, 0x00, 0x18, 0x00, 0x00, 0x00, 0x04, 0x00, 0x00, 0x00, 
    0x12, 0xff, 0xff, 0xff, 0x04, 0x00, 0x00, 0x00, 0x01, 0x00, 0x00, 0x00, 
    0x1b, 0x00, 0x00, 0x00, 0x04, 0x00, 0x00, 0x00, 0x1a, 0x00, 0x00, 0x00, 
    0x05, 0x00, 0x00, 0x00, 0x05, 0x00, 0x00, 0x00, 0x06, 0x00, 0x00, 0x00, 
    0x46, 0xfe, 0xff, 0xff, 0x14, 0x00, 0x00, 0x00, 0x00, 0x00, 0x00, 0x20, 
    0x14, 0x00, 0x00, 0x00, 0x18, 0x00, 0x00, 0x00, 0x03, 0x00, 0x00, 0x00, 
    0x0a, 0xff, 0xff, 0xff, 0x01, 0x00, 0x00, 0x00, 0x01, 0x00, 0x00, 0x00, 
    0x1a, 0x00, 0x00, 0x00, 0x04, 0x00, 0x00, 0x00, 0x19, 0x00, 0x00, 0x00, 
    0x01, 0x00, 0x00, 0x00, 0x02, 0x00, 0x00, 0x00, 0x02, 0x00, 0x00, 0x00, 
    0x82, 0xfe, 0xff, 0xff, 0x14, 0x00, 0x00, 0x00, 0x00, 0x00, 0x00, 0x37, 
    0x14, 0x00, 0x00, 0x00, 0x18, 0x00, 0x00, 0x00, 0x02, 0x00, 0x00, 0x00, 
    0xfa, 0xfe, 0xff, 0xff, 0x00, 0x00, 0x00, 0x02, 0x01, 0x00, 0x00, 0x00, 
    0x19, 0x00, 0x00, 0x00, 0x01, 0x00, 0x00, 0x00, 0x18, 0x00, 0x00, 0x00, 
    0xb2, 0xfe, 0xff, 0xff, 0x14, 0x00, 0x00, 0x00, 0x00, 0x00, 0x00, 0x31, 
    0x1c, 0x00, 0x00, 0x00, 0x20, 0x00, 0x00, 0x00, 0x05, 0x00, 0x00, 0x00, 
    0xa4, 0xfe, 0xff, 0xff, 0x00, 0x00, 0x00, 0x01, 0x02, 0x00, 0x00, 0x00, 
    0x02, 0x00, 0x00, 0x00, 0x01, 0x00, 0x00, 0x00, 0x18, 0x00, 0x00, 0x00, 
    0x04, 0x00, 0x00, 0x00, 0x17, 0x00, 0x00, 0x00, 0x0d, 0x00, 0x00, 0x00, 
    0x14, 0x00, 0x00, 0x00, 0x0c, 0x00, 0x00, 0x00, 0xf6, 0xfe, 0xff, 0xff, 
    0x1c, 0x00, 0x00, 0x00, 0x00, 0x00, 0x00, 0x3b, 0x1c, 0x00, 0x00, 0x00, 
    0x20, 0x00, 0x00, 0x00, 0x04, 0x00, 0x00, 0x00, 0x00, 0x00, 0x06, 0x00, 
    0x08, 0x00, 0x04, 0x00, 0x06, 0x00, 0x00, 0x00, 0x04, 0x00, 0x00, 0x00, 
    0x01, 0x00, 0x00, 0x00, 0x17, 0x00, 0x00, 0x00, 0x04, 0x00, 0x00, 0x00, 
    0x16, 0x00, 0x00, 0x00, 0x03, 0x00, 0x00, 0x00, 0x03, 0x00, 0x00, 0x00, 
    0x04, 0x00, 0x00, 0x00, 0x3a, 0xff, 0xff, 0xff, 0x24, 0x00, 0x00, 0x00, 
    0x00, 0x00, 0x00, 0x20, 0x24, 0x00, 0x00, 0x00, 0x28, 0x00, 0x00, 0x00, 
    0x03, 0x00, 0x00, 0x00, 0x00, 0x00, 0x0e, 0x00, 0x08, 0x00, 0x00, 0x00, 
    0x00, 0x00, 0x00, 0x00, 0x00, 0x00, 0x04, 0x00, 0x0e, 0x00, 0x00, 0x00, 
    0x01, 0x00, 0x00, 0x00, 0x01, 0x00, 0x00, 0x00, 0x16, 0x00, 0x00, 0x00, 
    0x04, 0x00, 0x00, 0x00, 0x15, 0x00, 0x00, 0x00, 0x01, 0x00, 0x00, 0x00, 
    0x02, 0x00, 0x00, 0x00, 0x02, 0x00, 0x00, 0x00, 0x86, 0xff, 0xff, 0xff, 
    0x1c, 0x00, 0x00, 0x00, 0x00, 0x00, 0x00, 0x37, 0x1c, 0x00, 0x00, 0x00, 
    0x20, 0x00, 0x00, 0x00, 0x02, 0x00, 0x00, 0x00, 0x00, 0x00, 0x06, 0x00, 
    0x08, 0x00, 0x07, 0x00, 0x06, 0x00, 0x00, 0x00, 0x00, 0x00, 0x00, 0x02, 
    0x01, 0x00, 0x00, 0x00, 0x15, 0x00, 0x00, 0x00, 0x01, 0x00, 0x00, 0x00, 
    0x14, 0x00, 0x00, 0x00, 0xbe, 0xff, 0xff, 0xff, 0x14, 0x00, 0x00, 0x00, 
    0x00, 0x00, 0x00, 0x01, 0x1c, 0x00, 0x00, 0x00, 0x20, 0x00, 0x00, 0x00, 
    0x01, 0x00, 0x00, 0x00, 0xb0, 0xff, 0xff, 0xff, 0x00, 0x00, 0x00, 0x01, 
    0x02, 0x00, 0x00, 0x00, 0x02, 0x00, 0x00, 0x00, 0x01, 0x00, 0x00, 0x00, 
    0x14, 0x00, 0x00, 0x00, 0x03, 0x00, 0x00, 0x00, 0x13, 0x00, 0x00, 0x00, 
    0x0f, 0x00, 0x00, 0x00, 0x0e, 0x00, 0x00, 0x00, 0x00, 0x00, 0x0e, 0x00, 
    0x18, 0x00, 0x14, 0x00, 0x10, 0x00, 0x0c, 0x00, 0x0b, 0x00, 0x04, 0x00, 
    0x0e, 0x00, 0x00, 0x00, 0x20, 0x00, 0x00, 0x00, 0x00, 0x00, 0x00, 0x01, 
    0x28, 0x00, 0x00, 0x00, 0x2c, 0x00, 0x00, 0x00, 0x01, 0x00, 0x00, 0x00, 
    0x0c, 0x00, 0x10, 0x00, 0x00, 0x00, 0x0c, 0x00, 0x08, 0x00, 0x07, 0x00, 
    0x0c, 0x00, 0x00, 0x00, 0x00, 0x00, 0x00, 0x01, 0x02, 0x00, 0x00, 0x00, 
    0x02, 0x00, 0x00, 0x00, 0x01, 0x00, 0x00, 0x00, 0x13, 0x00, 0x00, 0x00, 
    0x03, 0x00, 0x00, 0x00, 0x12, 0x00, 0x00, 0x00, 0x11, 0x00, 0x00, 0x00, 
    0x10, 0x00, 0x00, 0x00, 0x00, 0x00, 0x0a, 0x00, 0x0c, 0x00, 0x00, 0x00, 
    0x08, 0x00, 0x04, 0x00, 0x0a, 0x00, 0x00, 0x00, 0x08, 0x00, 0x00, 0x00, 
    0x0c, 0x00, 0x00, 0x00, 0x01, 0x00, 0x00, 0x00, 0x12, 0x00, 0x00, 0x00, 
    0x01, 0x00, 0x00, 0x00, 0x00, 0x00, 0x00, 0x00, 0x01, 0x00, 0x00, 0x00, 
    0x21, 0x00, 0x00, 0x00, 0x01, 0x00, 0x00, 0x00, 0x00, 0x00, 0x00, 0x00, 
    0x22, 0x00, 0x00, 0x00, 0xb8, 0x19, 0x00, 0x00, 0x38, 0x19, 0x00, 0x00, 
    0xb8, 0x18, 0x00, 0x00, 0x60, 0x18, 0x00, 0x00, 0x08, 0x18, 0x00, 0x00, 
    0xb0, 0x17, 0x00, 0x00, 0x58, 0x17, 0x00, 0x00, 0x00, 0x17, 0x00, 0x00, 
    0x6c, 0x16, 0x00, 0x00, 0xdc, 0x15, 0x00, 0x00, 0xe0, 0x13, 0x00, 0x00, 
    0xdc, 0x11, 0x00, 0x00, 0xa0, 0x10, 0x00, 0x00, 0x5c, 0x0f, 0x00, 0x00, 
    0x28, 0x0e, 0x00, 0x00, 0xfc, 0x0c, 0x00, 0x00, 0x08, 0x0b, 0x00, 0x00, 
    0x1c, 0x09, 0x00, 0x00, 0x98, 0x08, 0x00, 0x00, 0x84, 0x07, 0x00, 0x00, 
    0x88, 0x06, 0x00, 0x00, 0x30, 0x06, 0x00, 0x00, 0xd4, 0x05, 0x00, 0x00, 
    0x7c, 0x05, 0x00, 0x00, 0x48, 0x04, 0x00, 0x00, 0xf0, 0x03, 0x00, 0x00, 
    0x94, 0x03, 0x00, 0x00, 0x3c, 0x03, 0x00, 0x00, 0x08, 0x02, 0x00, 0x00, 
    0xb0, 0x01, 0x00, 0x00, 0x54, 0x01, 0x00, 0x00, 0xfc, 0x00, 0x00, 0x00, 
    0x70, 0x00, 0x00, 0x00, 0x04, 0x00, 0x00, 0x00, 0xe6, 0xe6, 0xff, 0xff, 
    0x00, 0x00, 0x00, 0x01, 0x14, 0x00, 0x00, 0x00, 0x24, 0x00, 0x00, 0x00, 
    0x24, 0x00, 0x00, 0x00, 0x22, 0x00, 0x00, 0x00, 0x3c, 0x00, 0x00, 0x00, 
    0x04, 0x00, 0x00, 0x00, 0xff, 0xff, 0xff, 0xff, 0x04, 0x00, 0x00, 0x00, 
    0x04, 0x00, 0x00, 0x00, 0x01, 0x00, 0x00, 0x00, 0xd0, 0xe6, 0xff, 0xff, 
    0x19, 0x00, 0x00, 0x00, 0x53, 0x74, 0x61, 0x74, 0x65, 0x66, 0x75, 0x6c, 
    0x50, 0x61, 0x72, 0x74, 0x69, 0x74, 0x69, 0x6f, 0x6e, 0x65, 0x64, 0x43, 
    0x61, 0x6c, 0x6c, 0x3a, 0x30, 0x00, 0x00, 0x00, 0x04, 0x00, 0x00, 0x00, 
    0x01, 0x00, 0x00, 0x00, 0x04, 0x00, 0x00, 0x00, 0x04, 0x00, 0x00, 0x00, 
    0x01, 0x00, 0x00, 0x00, 0x26, 0xf8, 0xff, 0xff, 0x00, 0x00, 0x00, 0x01, 
    0x18, 0x00, 0x00, 0x00, 0x28, 0x00, 0x00, 0x00, 0x44, 0x00, 0x00, 0x00, 
    0x21, 0x00, 0x00, 0x00, 0x00, 0x00, 0x00, 0x09, 0x58, 0x00, 0x00, 0x00, 
    0x04, 0x00, 0x00, 0x00, 0xff, 0xff, 0xff, 0xff, 0x04, 0x00, 0x00, 0x00, 
    0x04, 0x00, 0x00, 0x00, 0x01, 0x00, 0x00, 0x00, 0x7c, 0xea, 0xff, 0xff, 
    0x08, 0x00, 0x00, 0x00, 0x10, 0x00, 0x00, 0x00, 0x01, 0x00, 0x00, 0x00, 
    0xaa, 0xff, 0xff, 0xff, 0xff, 0xff, 0xff, 0xff, 0x01, 0x00, 0x00, 0x00, 
    0xf6, 0xb1, 0x11, 0x3d, 0x1a, 0x00, 0x00, 0x00, 0x53, 0x74, 0x61, 0x74, 
    0x65, 0x66, 0x75, 0x6c, 0x50, 0x61, 0x72, 0x74, 0x69, 0x74, 0x69, 0x6f, 
    0x6e, 0x65, 0x64, 0x43, 0x61, 0x6c, 0x6c, 0x3a, 0x30, 0x31, 0x00, 0x00, 
    0x04, 0x00, 0x00, 0x00, 0x01, 0x00, 0x00, 0x00, 0x04, 0x00, 0x00, 0x00, 
    0x04, 0x00, 0x00, 0x00, 0x01, 0x00, 0x00, 0x00, 0x52, 0xe8, 0xff, 0xff, 
    0x00, 0x00, 0x00, 0x01, 0x14, 0x00, 0x00, 0x00, 0x14, 0x00, 0x00, 0x00, 
    0x20, 0x00, 0x00, 0x00, 0x00, 0x00, 0x00, 0x02, 0x34, 0x00, 0x00, 0x00, 
    0xac, 0xe7, 0xff, 0xff, 0x27, 0x00, 0x00, 0x00, 0x73, 0x65, 0x71, 0x75, 
    0x65, 0x6e, 0x74, 0x69, 0x61, 0x6c, 0x5f, 0x32, 0x38, 0x2f, 0x63, 0x6f, 
    0x6e, 0x76, 0x32, 0x64, 0x5f, 0x74, 0x72, 0x61, 0x6e, 0x73, 0x70, 0x6f, 
    0x73, 0x65, 0x5f, 0x36, 0x35, 0x2f, 0x73, 0x74, 0x61, 0x63, 0x6b, 0x00, 
    0x01, 0x00, 0x00, 0x00, 0x04, 0x00, 0x00, 0x00, 0xa6, 0xe8, 0xff, 0xff, 
    0x00, 0x00, 0x00, 0x01, 0x14, 0x00, 0x00, 0x00, 0x14, 0x00, 0x00, 0x00, 
    0x1f, 0x00, 0x00, 0x00, 0x00, 0x00, 0x00, 0x02, 0x3c, 0x00, 0x00, 0x00, 
    0x00, 0xe8, 0xff, 0xff, 0x2f, 0x00, 0x00, 0x00, 0x73, 0x65, 0x71, 0x75, 
    0x65, 0x6e, 0x74, 0x69, 0x61, 0x6c, 0x5f, 0x32, 0x38, 0x2f, 0x63, 0x6f, 
    0x6e, 0x76, 0x32, 0x64, 0x5f, 0x74, 0x72, 0x61, 0x6e, 0x73, 0x70, 0x6f, 
    0x73, 0x65, 0x5f, 0x36, 0x35, 0x2f, 0x73, 0x74, 0x72, 0x69, 0x64, 0x65, 
    0x64, 0x5f, 0x73, 0x6c, 0x69, 0x63, 0x65, 0x00, 0x00, 0x00, 0x00, 0x00, 
    0xfe, 0xe8, 0xff, 0xff, 0x00, 0x00, 0x00, 0x01, 0x14, 0x00, 0x00, 0x00, 
    0x14, 0x00, 0x00, 0x00, 0x1e, 0x00, 0x00, 0x00, 0x00, 0x00, 0x00, 0x02, 
    0x34, 0x00, 0x00, 0x00, 0x58, 0xe8, 0xff, 0xff, 0x27, 0x00, 0x00, 0x00, 
    0x73, 0x65, 0x71, 0x75, 0x65, 0x6e, 0x74, 0x69, 0x61, 0x6c, 0x5f, 0x32, 
    0x38, 0x2f, 0x63, 0x6f, 0x6e, 0x76, 0x32, 0x64, 0x5f, 0x74, 0x72, 0x61, 
    0x6e, 0x73, 0x70, 0x6f, 0x73, 0x65, 0x5f, 0x36, 0x35, 0x2f, 0x53, 0x68, 
    0x61, 0x70, 0x65, 0x00, 0x01, 0x00, 0x00, 0x00, 0x04, 0x00, 0x00, 0x00, 
    0xae, 0xf9, 0xff, 0xff, 0x00, 0x00, 0x00, 0x01, 0x18, 0x00, 0x00, 0x00, 
    0x28, 0x00, 0x00, 0x00, 0x48, 0x00, 0x00, 0x00, 0x1d, 0x00, 0x00, 0x00, 
    0x00, 0x00, 0x00, 0x09, 0x00, 0x01, 0x00, 0x00, 0x04, 0x00, 0x00, 0x00, 
    0xff, 0xff, 0xff, 0xff, 0x04, 0x00, 0x00, 0x00, 0x04, 0x00, 0x00, 0x00, 
    0x20, 0x00, 0x00, 0x00, 0x04, 0xec, 0xff, 0xff, 0x08, 0x00, 0x00, 0x00, 
    0x14, 0x00, 0x00, 0x00, 0x01, 0x00, 0x00, 0x00, 0x80, 0xff, 0xff, 0xff, 
    0xff, 0xff, 0xff, 0xff, 0x00, 0x00, 0x00, 0x00, 0x01, 0x00, 0x00, 0x00, 
    0x5a, 0x65, 0x35, 0x3c, 0xbc, 0x00, 0x00, 0x00, 0x73, 0x65, 0x71, 0x75, 
    0x65, 0x6e, 0x74, 0x69, 0x61, 0x6c, 0x5f, 0x32, 0x38, 0x2f, 0x63, 0x6f, 
    0x6e, 0x76, 0x32, 0x64, 0x5f, 0x74, 0x72, 0x61, 0x6e, 0x73, 0x70, 0x6f, 
    0x73, 0x65, 0x5f, 0x36, 0x34, 0x2f, 0x52, 0x65, 0x6c, 0x75, 0x3b, 0x73, 
    0x65, 0x71, 0x75, 0x65, 0x6e, 0x74, 0x69, 0x61, 0x6c, 0x5f, 0x32, 0x38, 
    0x2f, 0x63, 0x6f, 0x6e, 0x76, 0x32, 0x64, 0x5f, 0x74, 0x72, 0x61, 0x6e, 
    0x73, 0x70, 0x6f, 0x73, 0x65, 0x5f, 0x36, 0x34, 0x2f, 0x42, 0x69, 0x61, 
    0x73, 0x41, 0x64, 0x64, 0x3b, 0x73, 0x65, 0x71, 0x75, 0x65, 0x6e, 0x74, 
    0x69, 0x61, 0x6c, 0x5f, 0x32, 0x38, 0x2f, 0x63, 0x6f, 0x6e, 0x76, 0x32, 
    0x64, 0x5f, 0x74, 0x72, 0x61, 0x6e, 0x73, 0x70, 0x6f, 0x73, 0x65, 0x5f, 
    0x36, 0x34, 0x2f, 0x63, 0x6f, 0x6e, 0x76, 0x32, 0x64, 0x5f, 0x74, 0x72, 
    0x61, 0x6e, 0x73, 0x70, 0x6f, 0x73, 0x65, 0x3b, 0x73, 0x65, 0x71, 0x75, 
    0x65, 0x6e, 0x74, 0x69, 0x61, 0x6c, 0x5f, 0x32, 0x38, 0x2f, 0x63, 0x6f, 
    0x6e, 0x76, 0x32, 0x64, 0x5f, 0x74, 0x72, 0x61, 0x6e, 0x73, 0x70, 0x6f, 
    0x73, 0x65, 0x5f, 0x36, 0x34, 0x2f, 0x42, 0x69, 0x61, 0x73, 0x41, 0x64, 
    0x64, 0x2f, 0x52, 0x65, 0x61, 0x64, 0x56, 0x61, 0x72, 0x69, 0x61, 0x62, 
    0x6c, 0x65, 0x4f, 0x70, 0x00, 0x00, 0x00, 0x00, 0x04, 0x00, 0x00, 0x00, 
    0x01, 0x00, 0x00, 0x00, 0x04, 0x00, 0x00, 0x00, 0x04, 0x00, 0x00, 0x00, 
    0x20, 0x00, 0x00, 0x00, 0x82, 0xea, 0xff, 0xff, 0x00, 0x00, 0x00, 0x01, 
    0x14, 0x00, 0x00, 0x00, 0x14, 0x00, 0x00, 0x00, 0x1c, 0x00, 0x00, 0x00, 
    0x00, 0x00, 0x00, 0x02, 0x34, 0x00, 0x00, 0x00, 0xdc, 0xe9, 0xff, 0xff, 
    0x27, 0x00, 0x00, 0x00, 0x73, 0x65, 0x71, 0x75, 0x65, 0x6e, 0x74, 0x69, 
    0x61, 0x6c, 0x5f, 0x32, 0x38, 0x2f, 0x63, 0x6f, 0x6e, 0x76, 0x32, 0x64, 
    0x5f, 0x74, 0x72, 0x61, 0x6e, 0x73, 0x70, 0x6f, 0x73, 0x65, 0x5f, 0x36, 
    0x34, 0x2f, 0x73, 0x74, 0x61, 0x63, 0x6b, 0x00, 0x01, 0x00, 0x00, 0x00, 
    0x04, 0x00, 0x00, 0x00, 0xd6, 0xea, 0xff, 0xff, 0x00, 0x00, 0x00, 0x01, 
    0x14, 0x00, 0x00, 0x00, 0x14, 0x00, 0x00, 0x00, 0x1b, 0x00, 0x00, 0x00, 
    0x00, 0x00, 0x00, 0x02, 0x3c, 0x00, 0x00, 0x00, 0x30, 0xea, 0xff, 0xff, 
    0x2f, 0x00, 0x00, 0x00, 0x73, 0x65, 0x71, 0x75, 0x65, 0x6e, 0x74, 0x69, 
    0x61, 0x6c, 0x5f, 0x32, 0x38, 0x2f, 0x63, 0x6f, 0x6e, 0x76, 0x32, 0x64, 
    0x5f, 0x74, 0x72, 0x61, 0x6e, 0x73, 0x70, 0x6f, 0x73, 0x65, 0x5f, 0x36, 
    0x34, 0x2f, 0x73, 0x74, 0x72, 0x69, 0x64, 0x65, 0x64, 0x5f, 0x73, 0x6c, 
    0x69, 0x63, 0x65, 0x00, 0x00, 0x00, 0x00, 0x00, 0x2e, 0xeb, 0xff, 0xff, 
    0x00, 0x00, 0x00, 0x01, 0x14, 0x00, 0x00, 0x00, 0x14, 0x00, 0x00, 0x00, 
    0x1a, 0x00, 0x00, 0x00, 0x00, 0x00, 0x00, 0x02, 0x34, 0x00, 0x00, 0x00, 
    0x88, 0xea, 0xff, 0xff, 0x27, 0x00, 0x00, 0x00, 0x73, 0x65, 0x71, 0x75, 
    0x65, 0x6e, 0x74, 0x69, 0x61, 0x6c, 0x5f, 0x32, 0x38, 0x2f, 0x63, 0x6f, 
    0x6e, 0x76, 0x32, 0x64, 0x5f, 0x74, 0x72, 0x61, 0x6e, 0x73, 0x70, 0x6f, 
    0x73, 0x65, 0x5f, 0x36, 0x34, 0x2f, 0x53, 0x68, 0x61, 0x70, 0x65, 0x00, 
    0x01, 0x00, 0x00, 0x00, 0x04, 0x00, 0x00, 0x00, 0xde, 0xfb, 0xff, 0xff, 
    0x00, 0x00, 0x00, 0x01, 0x18, 0x00, 0x00, 0x00, 0x28, 0x00, 0x00, 0x00, 
    0x48, 0x00, 0x00, 0x00, 0x19, 0x00, 0x00, 0x00, 0x00, 0x00, 0x00, 0x09, 
    0x00, 0x01, 0x00, 0x00, 0x04, 0x00, 0x00, 0x00, 0xff, 0xff, 0xff, 0xff, 
    0x02, 0x00, 0x00, 0x00, 0x02, 0x00, 0x00, 0x00, 0x10, 0x00, 0x00, 0x00, 
    0x34, 0xee, 0xff, 0xff, 0x08, 0x00, 0x00, 0x00, 0x14, 0x00, 0x00, 0x00, 
    0x01, 0x00, 0x00, 0x00, 0x80, 0xff, 0xff, 0xff, 0xff, 0xff, 0xff, 0xff, 
    0x00, 0x00, 0x00, 0x00, 0x01, 0x00, 0x00, 0x00, 0xac, 0xba, 0x17, 0x3c, 
    0xbc, 0x00, 0x00, 0x00, 0x73, 0x65, 0x71, 0x75, 0x65, 0x6e, 0x74, 0x69, 
    0x61, 0x6c, 0x5f, 0x32, 0x38, 0x2f, 0x63, 0x6f, 0x6e, 0x76, 0x32, 0x64, 
    0x5f, 0x74, 0x72, 0x61, 0x6e, 0x73, 0x70, 0x6f, 0x73, 0x65, 0x5f, 0x36, 
    0x33, 0x2f, 0x52, 0x65, 0x6c, 0x75, 0x3b, 0x73, 0x65, 0x71, 0x75, 0x65, 
    0x6e, 0x74, 0x69, 0x61, 0x6c, 0x5f, 0x32, 0x38, 0x2f, 0x63, 0x6f, 0x6e, 
    0x76, 0x32, 0x64, 0x5f, 0x74, 0x72, 0x61, 0x6e, 0x73, 0x70, 0x6f, 0x73, 
    0x65, 0x5f, 0x36, 0x33, 0x2f, 0x42, 0x69, 0x61, 0x73, 0x41, 0x64, 0x64, 
    0x3b, 0x73, 0x65, 0x71, 0x75, 0x65, 0x6e, 0x74, 0x69, 0x61, 0x6c, 0x5f, 
    0x32, 0x38, 0x2f, 0x63, 0x6f, 0x6e, 0x76, 0x32, 0x64, 0x5f, 0x74, 0x72, 
    0x61, 0x6e, 0x73, 0x70, 0x6f, 0x73, 0x65, 0x5f, 0x36, 0x33, 0x2f, 0x63, 
    0x6f, 0x6e, 0x76, 0x32, 0x64, 0x5f, 0x74, 0x72, 0x61, 0x6e, 0x73, 0x70, 
    0x6f, 0x73, 0x65, 0x3b, 0x73, 0x65, 0x71, 0x75, 0x65, 0x6e, 0x74, 0x69, 
    0x61, 0x6c, 0x5f, 0x32, 0x38, 0x2f, 0x63, 0x6f, 0x6e, 0x76, 0x32, 0x64, 
    0x5f, 0x74, 0x72, 0x61, 0x6e, 0x73, 0x70, 0x6f, 0x73, 0x65, 0x5f, 0x36, 
    0x33, 0x2f, 0x42, 0x69, 0x61, 0x73, 0x41, 0x64, 0x64, 0x2f, 0x52, 0x65, 
    0x61, 0x64, 0x56, 0x61, 0x72, 0x69, 0x61, 0x62, 0x6c, 0x65, 0x4f, 0x70, 
    0x00, 0x00, 0x00, 0x00, 0x04, 0x00, 0x00, 0x00, 0x01, 0x00, 0x00, 0x00, 
    0x02, 0x00, 0x00, 0x00, 0x02, 0x00, 0x00, 0x00, 0x10, 0x00, 0x00, 0x00, 
    0xb2, 0xec, 0xff, 0xff, 0x00, 0x00, 0x00, 0x01, 0x14, 0x00, 0x00, 0x00, 
    0x14, 0x00, 0x00, 0x00, 0x18, 0x00, 0x00, 0x00, 0x00, 0x00, 0x00, 0x02, 
    0x34, 0x00, 0x00, 0x00, 0x0c, 0xec, 0xff, 0xff, 0x27, 0x00, 0x00, 0x00, 
    0x73, 0x65, 0x71, 0x75, 0x65, 0x6e, 0x74, 0x69, 0x61, 0x6c, 0x5f, 0x32, 
    0x38, 0x2f, 0x63, 0x6f, 0x6e, 0x76, 0x32, 0x64, 0x5f, 0x74, 0x72, 0x61, 
    0x6e, 0x73, 0x70, 0x6f, 0x73, 0x65, 0x5f, 0x36, 0x33, 0x2f, 0x73, 0x74, 
    0x61, 0x63, 0x6b, 0x00, 0x01, 0x00, 0x00, 0x00, 0x04, 0x00, 0x00, 0x00, 
    0x06, 0xed, 0xff, 0xff, 0x00, 0x00, 0x00, 0x01, 0x14, 0x00, 0x00, 0x00, 
    0x14, 0x00, 0x00, 0x00, 0x17, 0x00, 0x00, 0x00, 0x00, 0x00, 0x00, 0x02, 
    0x3c, 0x00, 0x00, 0x00, 0x60, 0xec, 0xff, 0xff, 0x2f, 0x00, 0x00, 0x00, 
    0x73, 0x65, 0x71, 0x75, 0x65, 0x6e, 0x74, 0x69, 0x61, 0x6c, 0x5f, 0x32, 
    0x38, 0x2f, 0x63, 0x6f, 0x6e, 0x76, 0x32, 0x64, 0x5f, 0x74, 0x72, 0x61, 
    0x6e, 0x73, 0x70, 0x6f, 0x73, 0x65, 0x5f, 0x36, 0x33, 0x2f, 0x73, 0x74, 
    0x72, 0x69, 0x64, 0x65, 0x64, 0x5f, 0x73, 0x6c, 0x69, 0x63, 0x65, 0x00, 
    0x00, 0x00, 0x00, 0x00, 0x5e, 0xed, 0xff, 0xff, 0x00, 0x00, 0x00, 0x01, 
    0x14, 0x00, 0x00, 0x00, 0x14, 0x00, 0x00, 0x00, 0x16, 0x00, 0x00, 0x00, 
    0x00, 0x00, 0x00, 0x02, 0x34, 0x00, 0x00, 0x00, 0xb8, 0xec, 0xff, 0xff, 
    0x27, 0x00, 0x00, 0x00, 0x73, 0x65, 0x71, 0x75, 0x65, 0x6e, 0x74, 0x69, 
    0x61, 0x6c, 0x5f, 0x32, 0x38, 0x2f, 0x63, 0x6f, 0x6e, 0x76, 0x32, 0x64, 
    0x5f, 0x74, 0x72, 0x61, 0x6e, 0x73, 0x70, 0x6f, 0x73, 0x65, 0x5f, 0x36, 
    0x33, 0x2f, 0x53, 0x68, 0x61, 0x70, 0x65, 0x00, 0x01, 0x00, 0x00, 0x00, 
    0x04, 0x00, 0x00, 0x00, 0x0e, 0xfe, 0xff, 0xff, 0x00, 0x00, 0x00, 0x01, 
    0x18, 0x00, 0x00, 0x00, 0x28, 0x00, 0x00, 0x00, 0x44, 0x00, 0x00, 0x00, 
    0x15, 0x00, 0x00, 0x00, 0x00, 0x00, 0x00, 0x09, 0xc8, 0x00, 0x00, 0x00, 
    0x04, 0x00, 0x00, 0x00, 0xff, 0xff, 0xff, 0xff, 0x01, 0x00, 0x00, 0x00, 
    0x01, 0x00, 0x00, 0x00, 0x10, 0x00, 0x00, 0x00, 0x64, 0xf0, 0xff, 0xff, 
    0x08, 0x00, 0x00, 0x00, 0x10, 0x00, 0x00, 0x00, 0x01, 0x00, 0x00, 0x00, 
    0x80, 0xff, 0xff, 0xff, 0xff, 0xff, 0xff, 0xff, 0x01, 0x00, 0x00, 0x00, 
    0x14, 0x01, 0x17, 0x3c, 0x8a, 0x00, 0x00, 0x00, 0x73, 0x65, 0x71, 0x75, 
    0x65, 0x6e, 0x74, 0x69, 0x61, 0x6c, 0x5f, 0x32, 0x38, 0x2f, 0x63, 0x6f, 
    0x6e, 0x76, 0x32, 0x64, 0x5f, 0x34, 0x33, 0x2f, 0x52, 0x65, 0x6c, 0x75, 
    0x3b, 0x73, 0x65, 0x71, 0x75, 0x65, 0x6e, 0x74, 0x69, 0x61, 0x6c, 0x5f, 
    0x32, 0x38, 0x2f, 0x63, 0x6f, 0x6e, 0x76, 0x32, 0x64, 0x5f, 0x34, 0x33, 
    0x2f, 0x42, 0x69, 0x61, 0x73, 0x41, 0x64, 0x64, 0x3b, 0x73, 0x65, 0x71, 
    0x75, 0x65, 0x6e, 0x74, 0x69, 0x61, 0x6c, 0x5f, 0x32, 0x38, 0x2f, 0x63, 
    0x6f, 0x6e, 0x76, 0x32, 0x64, 0x5f, 0x34, 0x33, 0x2f, 0x43, 0x6f, 0x6e, 
    0x76, 0x32, 0x44, 0x3b, 0x73, 0x65, 0x71, 0x75, 0x65, 0x6e, 0x74, 0x69, 
    0x61, 0x6c, 0x5f, 0x32, 0x38, 0x2f, 0x63, 0x6f, 0x6e, 0x76, 0x32, 0x64, 
    0x5f, 0x34, 0x33, 0x2f, 0x42, 0x69, 0x61, 0x73, 0x41, 0x64, 0x64, 0x2f, 
    0x52, 0x65, 0x61, 0x64, 0x56, 0x61, 0x72, 0x69, 0x61, 0x62, 0x6c, 0x65, 
    0x4f, 0x70, 0x00, 0x00, 0x04, 0x00, 0x00, 0x00, 0x01, 0x00, 0x00, 0x00, 
    0x01, 0x00, 0x00, 0x00, 0x01, 0x00, 0x00, 0x00, 0x10, 0x00, 0x00, 0x00, 
    0x06, 0xff, 0xff, 0xff, 0x00, 0x00, 0x00, 0x01, 0x18, 0x00, 0x00, 0x00, 
    0x28, 0x00, 0x00, 0x00, 0x44, 0x00, 0x00, 0x00, 0x14, 0x00, 0x00, 0x00, 
    0x00, 0x00, 0x00, 0x09, 0xc8, 0x00, 0x00, 0x00, 0x04, 0x00, 0x00, 0x00, 
    0xff, 0xff, 0xff, 0xff, 0x01, 0x00, 0x00, 0x00, 0x01, 0x00, 0x00, 0x00, 
    0x20, 0x00, 0x00, 0x00, 0x5c, 0xf1, 0xff, 0xff, 0x08, 0x00, 0x00, 0x00, 
    0x10, 0x00, 0x00, 0x00, 0x01, 0x00, 0x00, 0x00, 0x80, 0xff, 0xff, 0xff, 
    0xff, 0xff, 0xff, 0xff, 0x01, 0x00, 0x00, 0x00, 0xc2, 0xa4, 0xd2, 0x3b, 
    0x8a, 0x00, 0x00, 0x00, 0x73, 0x65, 0x71, 0x75, 0x65, 0x6e, 0x74, 0x69, 
    0x61, 0x6c, 0x5f, 0x32, 0x38, 0x2f, 0x63, 0x6f, 0x6e, 0x76, 0x32, 0x64, 
    0x5f, 0x34, 0x32, 0x2f, 0x52, 0x65, 0x6c, 0x75, 0x3b, 0x73, 0x65, 0x71, 
    0x75, 0x65, 0x6e, 0x74, 0x69, 0x61, 0x6c, 0x5f, 0x32, 0x38, 0x2f, 0x63, 
    0x6f, 0x6e, 0x76, 0x32, 0x64, 0x5f, 0x34, 0x32, 0x2f, 0x42, 0x69, 0x61, 
    0x73, 0x41, 0x64, 0x64, 0x3b, 0x73, 0x65, 0x71, 0x75, 0x65, 0x6e, 0x74, 
    0x69, 0x61, 0x6c, 0x5f, 0x32, 0x38, 0x2f, 0x63, 0x6f, 0x6e, 0x76, 0x32, 
    0x64, 0x5f, 0x34, 0x32, 0x2f, 0x43, 0x6f, 0x6e, 0x76, 0x32, 0x44, 0x3b, 
    0x73, 0x65, 0x71, 0x75, 0x65, 0x6e, 0x74, 0x69, 0x61, 0x6c, 0x5f, 0x32, 
    0x38, 0x2f, 0x63, 0x6f, 0x6e, 0x76, 0x32, 0x64, 0x5f, 0x34, 0x32, 0x2f, 
    0x42, 0x69, 0x61, 0x73, 0x41, 0x64, 0x64, 0x2f, 0x52, 0x65, 0x61, 0x64, 
    0x56, 0x61, 0x72, 0x69, 0x61, 0x62, 0x6c, 0x65, 0x4f, 0x70, 0x00, 0x00, 
    0x04, 0x00, 0x00, 0x00, 0x01, 0x00, 0x00, 0x00, 0x01, 0x00, 0x00, 0x00, 
    0x01, 0x00, 0x00, 0x00, 0x20, 0x00, 0x00, 0x00, 0x00, 0x00, 0x16, 0x00, 
    0x20, 0x00, 0x1c, 0x00, 0x1b, 0x00, 0x14, 0x00, 0x10, 0x00, 0x0c, 0x00, 
    0x00, 0x00, 0x00, 0x00, 0x08, 0x00, 0x07, 0x00, 0x16, 0x00, 0x00, 0x00, 
    0x00, 0x00, 0x00, 0x01, 0x18, 0x00, 0x00, 0x00, 0x28, 0x00, 0x00, 0x00, 
    0x48, 0x00, 0x00, 0x00, 0x13, 0x00, 0x00, 0x00, 0x00, 0x00, 0x00, 0x09, 
    0x50, 0x00, 0x00, 0x00, 0x04, 0x00, 0x00, 0x00, 0xff, 0xff, 0xff, 0xff, 
    0x01, 0x00, 0x00, 0x00, 0x01, 0x00, 0x00, 0x00, 0x01, 0x00, 0x00, 0x00, 
    0x6c, 0xf2, 0xff, 0xff, 0x08, 0x00, 0x00, 0x00, 0x14, 0x00, 0x00, 0x00, 
    0x01, 0x00, 0x00, 0x00, 0xae, 0xff, 0xff, 0xff, 0xff, 0xff, 0xff, 0xff, 
    0x00, 0x00, 0x00, 0x00, 0x01, 0x00, 0x00, 0x00, 0x82, 0x07, 0x1a, 0x3d, 
    0x0c, 0x00, 0x00, 0x00, 0x74, 0x66, 0x6c, 0x2e, 0x71, 0x75, 0x61, 0x6e, 
    0x74, 0x69, 0x7a, 0x65, 0x00, 0x00, 0x00, 0x00, 0x04, 0x00, 0x00, 0x00, 
    0x01, 0x00, 0x00, 0x00, 0x01, 0x00, 0x00, 0x00, 0x01, 0x00, 0x00, 0x00, 
    0x01, 0x00, 0x00, 0x00, 0x3a, 0xf0, 0xff, 0xff, 0x00, 0x00, 0x00, 0x01, 
    0x14, 0x00, 0x00, 0x00, 0xa4, 0x01, 0x00, 0x00, 0x12, 0x00, 0x00, 0x00, 
    0x00, 0x00, 0x00, 0x09, 0xbc, 0x01, 0x00, 0x00, 0xd4, 0xf2, 0xff, 0xff, 
    0x08, 0x00, 0x00, 0x00, 0x08, 0x01, 0x00, 0x00, 0x20, 0x00, 0x00, 0x00, 
    0x00, 0x00, 0x00, 0x00, 0x00, 0x00, 0x00, 0x00, 0x00, 0x00, 0x00, 0x00, 
    0x00, 0x00, 0x00, 0x00, 0x00, 0x00, 0x00, 0x00, 0x00, 0x00, 0x00, 0x00, 
    0x00, 0x00, 0x00, 0x00, 0x00, 0x00, 0x00, 0x00, 0x00, 0x00, 0x00, 0x00, 
    0x00, 0x00, 0x00, 0x00, 0x00, 0x00, 0x00, 0x00, 0x00, 0x00, 0x00, 0x00, 
    0x00, 0x00, 0x00, 0x00, 0x00, 0x00, 0x00, 0x00, 0x00, 0x00, 0x00, 0x00, 
    0x00, 0x00, 0x00, 0x00, 0x00, 0x00, 0x00, 0x00, 0x00, 0x00, 0x00, 0x00, 
    0x00, 0x00, 0x00, 0x00, 0x00, 0x00, 0x00, 0x00, 0x00, 0x00, 0x00, 0x00, 
    0x00, 0x00, 0x00, 0x00, 0x00, 0x00, 0x00, 0x00, 0x00, 0x00, 0x00, 0x00, 
    0x00, 0x00, 0x00, 0x00, 0x00, 0x00, 0x00, 0x00, 0x00, 0x00, 0x00, 0x00, 
    0x00, 0x00, 0x00, 0x00, 0x00, 0x00, 0x00, 0x00, 0x00, 0x00, 0x00, 0x00, 
    0x00, 0x00, 0x00, 0x00, 0x00, 0x00, 0x00, 0x00, 0x00, 0x00, 0x00, 0x00, 
    0x00, 0x00, 0x00, 0x00, 0x00, 0x00, 0x00, 0x00, 0x00, 0x00, 0x00, 0x00, 
    0x00, 0x00, 0x00, 0x00, 0x00, 0x00, 0x00, 0x00, 0x00, 0x00, 0x00, 0x00, 
    0x00, 0x00, 0x00, 0x00, 0x00, 0x00, 0x00, 0x00, 0x00, 0x00, 0x00, 0x00, 
    0x00, 0x00, 0x00, 0x00, 0x00, 0x00, 0x00, 0x00, 0x00, 0x00, 0x00, 0x00, 
    0x00, 0x00, 0x00, 0x00, 0x00, 0x00, 0x00, 0x00, 0x00, 0x00, 0x00, 0x00, 
    0x00, 0x00, 0x00, 0x00, 0x00, 0x00, 0x00, 0x00, 0x00, 0x00, 0x00, 0x00, 
    0x00, 0x00, 0x00, 0x00, 0x00, 0x00, 0x00, 0x00, 0x00, 0x00, 0x00, 0x00, 
    0x00, 0x00, 0x00, 0x00, 0x00, 0x00, 0x00, 0x00, 0x00, 0x00, 0x00, 0x00, 
    0x00, 0x00, 0x00, 0x00, 0x00, 0x00, 0x00, 0x00, 0x00, 0x00, 0x00, 0x00, 
    0x00, 0x00, 0x00, 0x00, 0x00, 0x00, 0x00, 0x00, 0x00, 0x00, 0x00, 0x00, 
    0x00, 0x00, 0x00, 0x00, 0x20, 0x00, 0x00, 0x00, 0xb4, 0x84, 0x14, 0x3b, 
    0xc2, 0x58, 0x9c, 0x3a, 0x5b, 0x07, 0x01, 0x3b, 0xb3, 0x9d, 0xac, 0x3a, 
    0x4e, 0x1a, 0x99, 0x3a, 0x9f, 0x6e, 0x0f, 0x3b, 0x99, 0xb8, 0xa9, 0x3a, 
    0x12, 0x2c, 0xce, 0x3a, 0xcc, 0xc7, 0x00, 0x3b, 0x33, 0x3c, 0x8c, 0x3a, 
    0x39, 0x34, 0xd1, 0x3a, 0xef, 0x87, 0xe7, 0x3a, 0xc1, 0xd8, 0x03, 0x3b, 
    0xc5, 0x78, 0x8c, 0x3a, 0x47, 0xc6, 0xa2, 0x3a, 0x47, 0x54, 0xcb, 0x3a, 
    0xbd, 0xc1, 0xb1, 0x3a, 0x4c, 0x9b, 0xc8, 0x3a, 0xd3, 0x6e, 0xe1, 0x3a, 
    0x78, 0xb8, 0x04, 0x3b, 0xb8, 0xbb, 0xb7, 0x3a, 0x9a, 0x73, 0xb3, 0x3a, 
    0x0e, 0x5f, 0x04, 0x3b, 0xc6, 0x8e, 0x99, 0x3a, 0x23, 0x13, 0x8e, 0x3a, 
    0x8e, 0x8c, 0x9a, 0x3a, 0xd4, 0xa5, 0xa4, 0x3a, 0xd4, 0xce, 0xaf, 0x3a, 
    0x11, 0xe5, 0xf5, 0x3a, 0xa7, 0x9e, 0xf6, 0x3a, 0x6c, 0x25, 0xa2, 0x3a, 
    0x15, 0xfd, 0x0a, 0x3b, 0x1e, 0x00, 0x00, 0x00, 0x73, 0x65, 0x71, 0x75, 
    0x65, 0x6e, 0x74, 0x69, 0x61, 0x6c, 0x5f, 0x32, 0x38, 0x2f, 0x63, 0x6f, 
    0x6e, 0x76, 0x32, 0x64, 0x5f, 0x34, 0x32, 0x2f, 0x43, 0x6f, 0x6e, 0x76, 
    0x32, 0x44, 0x00, 0x00, 0x04, 0x00, 0x00, 0x00, 0x20, 0x00, 0x00, 0x00, 
    0x07, 0x00, 0x00, 0x00, 0x01, 0x00, 0x00, 0x00, 0x01, 0x00, 0x00, 0x00, 
    0x22, 0xf2, 0xff, 0xff, 0x00, 0x00, 0x00, 0x01, 0x14, 0x00, 0x00, 0x00, 
    0xa8, 0x01, 0x00, 0x00, 0x11, 0x00, 0x00, 0x00, 0x00, 0x00, 0x00, 0x02, 
    0xd0, 0x01, 0x00, 0x00, 0xbc, 0xf4, 0xff, 0xff, 0x08, 0x00, 0x00, 0x00, 
    0x0c, 0x01, 0x00, 0x00, 0x20, 0x00, 0x00, 0x00, 0x00, 0x00, 0x00, 0x00, 
    0x00, 0x00, 0x00, 0x00, 0x00, 0x00, 0x00, 0x00, 0x00, 0x00, 0x00, 0x00, 
    0x00, 0x00, 0x00, 0x00, 0x00, 0x00, 0x00, 0x00, 0x00, 0x00, 0x00, 0x00, 
    0x00, 0x00, 0x00, 0x00, 0x00, 0x00, 0x00, 0x00, 0x00, 0x00, 0x00, 0x00, 
    0x00, 0x00, 0x00, 0x00, 0x00, 0x00, 0x00, 0x00, 0x00, 0x00, 0x00, 0x00, 
    0x00, 0x00, 0x00, 0x00, 0x00, 0x00, 0x00, 0x00, 0x00, 0x00, 0x00, 0x00, 
    0x00, 0x00, 0x00, 0x00, 0x00, 0x00, 0x00, 0x00, 0x00, 0x00, 0x00, 0x00, 
    0x00, 0x00, 0x00, 0x00, 0x00, 0x00, 0x00, 0x00, 0x00, 0x00, 0x00, 0x00, 
    0x00, 0x00, 0x00, 0x00, 0x00, 0x00, 0x00, 0x00, 0x00, 0x00, 0x00, 0x00, 
    0x00, 0x00, 0x00, 0x00, 0x00, 0x00, 0x00, 0x00, 0x00, 0x00, 0x00, 0x00, 
    0x00, 0x00, 0x00, 0x00, 0x00, 0x00, 0x00, 0x00, 0x00, 0x00, 0x00, 0x00, 
    0x00, 0x00, 0x00, 0x00, 0x00, 0x00, 0x00, 0x00, 0x00, 0x00, 0x00, 0x00, 
    0x00, 0x00, 0x00, 0x00, 0x00, 0x00, 0x00, 0x00, 0x00, 0x00, 0x00, 0x00, 
    0x00, 0x00, 0x00, 0x00, 0x00, 0x00, 0x00, 0x00, 0x00, 0x00, 0x00, 0x00, 
    0x00, 0x00, 0x00, 0x00, 0x00, 0x00, 0x00, 0x00, 0x00, 0x00, 0x00, 0x00, 
    0x00, 0x00, 0x00, 0x00, 0x00, 0x00, 0x00, 0x00, 0x00, 0x00, 0x00, 0x00, 
    0x00, 0x00, 0x00, 0x00, 0x00, 0x00, 0x00, 0x00, 0x00, 0x00, 0x00, 0x00, 
    0x00, 0x00, 0x00, 0x00, 0x00, 0x00, 0x00, 0x00, 0x00, 0x00, 0x00, 0x00, 
    0x00, 0x00, 0x00, 0x00, 0x00, 0x00, 0x00, 0x00, 0x00, 0x00, 0x00, 0x00, 
    0x00, 0x00, 0x00, 0x00, 0x00, 0x00, 0x00, 0x00, 0x00, 0x00, 0x00, 0x00, 
    0x00, 0x00, 0x00, 0x00, 0x00, 0x00, 0x00, 0x00, 0x00, 0x00, 0x00, 0x00, 
    0x00, 0x00, 0x00, 0x00, 0x00, 0x00, 0x00, 0x00, 0x00, 0x00, 0x00, 0x00, 
    0x00, 0x00, 0x00, 0x00, 0x20, 0x00, 0x00, 0x00, 0x5f, 0xb8, 0xb2, 0x38, 
    0xf5, 0x23, 0x3c, 0x38, 0x6b, 0x44, 0x9b, 0x38, 0xdb, 0xb7, 0x4f, 0x38, 
    0xa1, 0x3c, 0x38, 0x38, 0x81, 0x99, 0xac, 0x38, 0x0d, 0x3c, 0x4c, 0x38, 
    0x1d, 0x19, 0x78, 0x38, 0xef, 0xf7, 0x9a, 0x38, 0xa7, 0xc0, 0x28, 0x38, 
    0x1a, 0xbf, 0x7b, 0x38, 0x90, 0x4e, 0x8b, 0x38, 0x84, 0xa8, 0x9e, 0x38, 
    0x8a, 0x09, 0x29, 0x38, 0x1a, 0xe0, 0x43, 0x38, 0x53, 0xad, 0x74, 0x38, 
    0x85, 0xe7, 0x55, 0x38, 0x9c, 0x66, 0x71, 0x38, 0x47, 0xa3, 0x87, 0x38, 
    0xb9, 0xb5, 0x9f, 0x38, 0xa0, 0x18, 0x5d, 0x38, 0x9c, 0xf1, 0x57, 0x38, 
    0x20, 0x4a, 0x9f, 0x38, 0xc8, 0xc8, 0x38, 0x38, 0x5b, 0xf7, 0x2a, 0x38, 
    0x2b, 0xfa, 0x39, 0x38, 0x2b, 0x21, 0x46, 0x38, 0x27, 0x8f, 0x53, 0x38, 
    0x02, 0xf3, 0x93, 0x38, 0xac, 0x62, 0x94, 0x38, 0x89, 0x1e, 0x43, 0x38, 
    0xa4, 0x40, 0xa7, 0x38, 0x2e, 0x00, 0x00, 0x00, 0x73, 0x65, 0x71, 0x75, 
    0x65, 0x6e, 0x74, 0x69, 0x61, 0x6c, 0x5f, 0x32, 0x38, 0x2f, 0x63, 0x6f, 
    0x6e, 0x76, 0x32, 0x64, 0x5f, 0x34, 0x32, 0x2f, 0x42, 0x69, 0x61, 0x73, 
    0x41, 0x64, 0x64, 0x2f, 0x52, 0x65, 0x61, 0x64, 0x56, 0x61, 0x72, 0x69, 
    0x61, 0x62, 0x6c, 0x65, 0x4f, 0x70, 0x00, 0x00, 0x01, 0x00, 0x00, 0x00, 
    0x20, 0x00, 0x00, 0x00, 0x12, 0xf4, 0xff, 0xff, 0x00, 0x00, 0x00, 0x01, 
    0x14, 0x00, 0x00, 0x00, 0xe4, 0x00, 0x00, 0x00, 0x10, 0x00, 0x00, 0x00, 
    0x00, 0x00, 0x00, 0x09, 0xfc, 0x00, 0x00, 0x00, 0xac, 0xf6, 0xff, 0xff, 
    0x08, 0x00, 0x00, 0x00, 0x88, 0x00, 0x00, 0x00, 0x10, 0x00, 0x00, 0x00, 
    0x00, 0x00, 0x00, 0x00, 0x00, 0x00, 0x00, 0x00, 0x00, 0x00, 0x00, 0x00, 
    0x00, 0x00, 0x00, 0x00, 0x00, 0x00, 0x00, 0x00, 0x00, 0x00, 0x00, 0x00, 
    0x00, 0x00, 0x00, 0x00, 0x00, 0x00, 0x00, 0x00, 0x00, 0x00, 0x00, 0x00, 
    0x00, 0x00, 0x00, 0x00, 0x00, 0x00, 0x00, 0x00, 0x00, 0x00, 0x00, 0x00, 
    0x00, 0x00, 0x00, 0x00, 0x00, 0x00, 0x00, 0x00, 0x00, 0x00, 0x00, 0x00, 
    0x00, 0x00, 0x00, 0x00, 0x00, 0x00, 0x00, 0x00, 0x00, 0x00, 0x00, 0x00, 
    0x00, 0x00, 0x00, 0x00, 0x00, 0x00, 0x00, 0x00, 0x00, 0x00, 0x00, 0x00, 
    0x00, 0x00, 0x00, 0x00, 0x00, 0x00, 0x00, 0x00, 0x00, 0x00, 0x00, 0x00, 
    0x00, 0x00, 0x00, 0x00, 0x00, 0x00, 0x00, 0x00, 0x00, 0x00, 0x00, 0x00, 
    0x00, 0x00, 0x00, 0x00, 0x00, 0x00, 0x00, 0x00, 0x00, 0x00, 0x00, 0x00, 
    0x00, 0x00, 0x00, 0x00, 0x00, 0x00, 0x00, 0x00, 0x10, 0x00, 0x00, 0x00, 
    0x03, 0x72, 0x89, 0x3a, 0x61, 0x7b, 0x30, 0x3b, 0xca, 0x4e, 0xea, 0x3a, 
